{
  "version": "1.0",
  "truncation": null,
  "padding": null,
  "added_tokens": [
    {
      "id": 0,
      "content": "[PAD]",
      "single_word": false,
      "lstrip": false,
      "rstrip": false,
      "normalized": false,
      "special": true
    },
    {
      "id": 1,
      "content": "[UNK]",
      "single_word": false,
      "lstrip": false,
      "rstrip": false,
      "normalized": false,
      "special": true
    },
    {
      "id": 2,
      "content": "[CLS]",
      "single_word": false,
      "lstrip": false,
      "rstrip": false,
      "normalized": false,
      "special": true
    },
    {
      "id": 3,
      "content": "[SEP]",
      "single_word": false,
      "lstrip": false,
      "rstrip": false,
      "normalized": false,
      "special": true
    },
    {
      "id": 4,
      "content": "[MASK]",
      "single_word": false,
      "lstrip": false,
      "rstrip": false,
      "normalized": false,
      "special": true
    }
  ],
  "normalizer": null,
  "pre_tokenizer": {
    "type": "Whitespace"
  },
  "post_processor": null,
  "decoder": null,
  "model": {
    "type": "BPE",
    "dropout": null,
    "unk_token": null,
    "continuing_subword_prefix": null,
    "end_of_word_suffix": null,
    "fuse_unk": false,
    "byte_fallback": false,
    "ignore_merges": false,
    "vocab": {
      "[PAD]": 0,
      "[UNK]": 1,
      "[CLS]": 2,
      "[SEP]": 3,
      "[MASK]": 4,
      "!": 5,
      "\"": 6,
      "#": 7,
      "$": 8,
      "%": 9,
      "&": 10,
      "'": 11,
      "(": 12,
      ")": 13,
      "*": 14,
      "+": 15,
      ",": 16,
      "-": 17,
      ".": 18,
      "/": 19,
      "0": 20,
      "1": 21,
      "2": 22,
      "3": 23,
      "4": 24,
      "5": 25,
      "6": 26,
      "7": 27,
      "8": 28,
      "9": 29,
      ":": 30,
      ";": 31,
      "<": 32,
      "=": 33,
      ">": 34,
      "?": 35,
      "@": 36,
      "A": 37,
      "B": 38,
      "C": 39,
      "D": 40,
      "E": 41,
      "F": 42,
      "G": 43,
      "H": 44,
      "I": 45,
      "J": 46,
      "K": 47,
      "L": 48,
      "M": 49,
      "N": 50,
      "O": 51,
      "P": 52,
      "Q": 53,
      "R": 54,
      "S": 55,
      "T": 56,
      "U": 57,
      "V": 58,
      "W": 59,
      "X": 60,
      "Y": 61,
      "Z": 62,
      "[": 63,
      "\\": 64,
      "]": 65,
      "^": 66,
      "_": 67,
      "a": 68,
      "b": 69,
      "c": 70,
      "d": 71,
      "e": 72,
      "f": 73,
      "g": 74,
      "h": 75,
      "i": 76,
      "j": 77,
      "k": 78,
      "l": 79,
      "m": 80,
      "n": 81,
      "o": 82,
      "p": 83,
      "q": 84,
      "r": 85,
      "s": 86,
      "t": 87,
      "u": 88,
      "v": 89,
      "w": 90,
      "x": 91,
      "y": 92,
      "z": 93,
      "{": 94,
      "|": 95,
      "}": 96,
      "~": 97,
      "£": 98,
      "§": 99,
      "©": 100,
      "°": 101,
      "±": 102,
      "²": 103,
      "¶": 104,
      "¹": 105,
      "¼": 106,
      "½": 107,
      "¾": 108,
      "¿": 109,
      "Ï": 110,
      "Ó": 111,
      "Ô": 112,
      "Ö": 113,
      "×": 114,
      "Ø": 115,
      "æ": 116,
      "í": 117,
      "ò": 118,
      "ø": 119,
      "ħ": 120,
      "ı": 121,
      "ĸ": 122,
      "Ō": 123,
      "ō": 124,
      "Œ": 125,
      "Ŵ": 126,
      "ƃ": 127,
      "ƒ": 128,
      "ǝ": 129,
      "Ǹ": 130,
      "ɢ": 131,
      "ɥ": 132,
      "ɪ": 133,
      "ɴ": 134,
      "ɹ": 135,
      "ʀ": 136,
      "ʇ": 137,
      "ʙ": 138,
      "ʜ": 139,
      "ʞ": 140,
      "ʟ": 141,
      "̊": 142,
      "̲": 143,
      "̶": 144,
      "Β": 145,
      "Γ": 146,
      "Δ": 147,
      "Ξ": 148,
      "Π": 149,
      "Σ": 150,
      "Ψ": 151,
      "Ω": 152,
      "β": 153,
      "σ": 154,
      "Б": 155,
      "Д": 156,
      "И": 157,
      "У": 158,
      "Ф": 159,
      "Ц": 160,
      "Я": 161,
      "г": 162,
      "з": 163,
      "л": 164,
      "ђ": 165,
      "є": 166,
      "Ғ": 167,
      "ғ": 168,
      "Ҝ": 169,
      "ं": 170,
      "इ": 171,
      "उ": 172,
      "ऑ": 173,
      "क": 174,
      "ग": 175,
      "घ": 176,
      "ज": 177,
      "त": 178,
      "थ": 179,
      "द": 180,
      "न": 181,
      "प": 182,
      "ब": 183,
      "भ": 184,
      "म": 185,
      "र": 186,
      "ल": 187,
      "ष": 188,
      "स": 189,
      "ह": 190,
      "ा": 191,
      "ि": 192,
      "ी": 193,
      "ु": 194,
      "े": 195,
      "ै": 196,
      "ो": 197,
      "्": 198,
      "।": 199,
      "ಂ": 200,
      "ಅ": 201,
      "ಆ": 202,
      "ಇ": 203,
      "ಈ": 204,
      "ಎ": 205,
      "ಒ": 206,
      "ಓ": 207,
      "ಕ": 208,
      "ಖ": 209,
      "ಗ": 210,
      "ಘ": 211,
      "ಚ": 212,
      "ಜ": 213,
      "ಞ": 214,
      "ಟ": 215,
      "ಠ": 216,
      "ಡ": 217,
      "ಢ": 218,
      "ಣ": 219,
      "ತ": 220,
      "ಥ": 221,
      "ದ": 222,
      "ಧ": 223,
      "ನ": 224,
      "ಪ": 225,
      "ಫ": 226,
      "ಬ": 227,
      "ಭ": 228,
      "ಮ": 229,
      "ಯ": 230,
      "ರ": 231,
      "ಲ": 232,
      "ಳ": 233,
      "ವ": 234,
      "ಶ": 235,
      "ಷ": 236,
      "ಸ": 237,
      "ಹ": 238,
      "ಾ": 239,
      "ಿ": 240,
      "ೀ": 241,
      "ು": 242,
      "ೂ": 243,
      "ೃ": 244,
      "ೆ": 245,
      "ೇ": 246,
      "ೈ": 247,
      "ೊ": 248,
      "ೋ": 249,
      "ೌ": 250,
      "್": 251,
      "උ": 252,
      "ง": 253,
      "ม": 254,
      "๓": 255,
      "Ⴊ": 256,
      "Ⴌ": 257,
      "Ⴎ": 258,
      "Ⴚ": 259,
      "ო": 260,
      "ᑌ": 261,
      "ᑎ": 262,
      "ᑕ": 263,
      "ᑫ": 264,
      "ᒪ": 265,
      "ᕼ": 266,
      "ᖇ": 267,
      "ᗩ": 268,
      "ᗪ": 269,
      "ᗯ": 270,
      "ᗰ": 271,
      "ᗷ": 272,
      "ᘔ": 273,
      "ᴀ": 274,
      "ᴄ": 275,
      "ᴅ": 276,
      "ᴇ": 277,
      "ᴋ": 278,
      "ᴍ": 279,
      "ᴏ": 280,
      "ᴛ": 281,
      "ᴜ": 282,
      "ᴠ": 283,
      "ᴡ": 284,
      "ᴩ": 285,
      "ṳ": 286,
      "​": 287,
      "‍": 288,
      "–": 289,
      "—": 290,
      "‘": 291,
      "’": 292,
      "“": 293,
      "”": 294,
      "†": 295,
      "•": 296,
      "⁠": 297,
      "₹": 298,
      "ℓ": 299,
      "ℵ": 300,
      "ⅴ": 301,
      "∂": 302,
      "∅": 303,
      "∇": 304,
      "∪": 305,
      "≤": 306,
      "⏱": 307,
      "ⓐ": 308,
      "ⓑ": 309,
      "ⓔ": 310,
      "ⓖ": 311,
      "ⓗ": 312,
      "ⓘ": 313,
      "ⓚ": 314,
      "ⓛ": 315,
      "ⓝ": 316,
      "ⓞ": 317,
      "ⓡ": 318,
      "ⓢ": 319,
      "ⓣ": 320,
      "ⓤ": 321,
      "ⓥ": 322,
      "ⓨ": 323,
      "▪": 324,
      "▫": 325,
      "☄": 326,
      "☔": 327,
      "☕": 328,
      "☝": 329,
      "☠": 330,
      "☹": 331,
      "☺": 332,
      "♂": 333,
      "♥": 334,
      "♭": 335,
      "♾": 336,
      "⚔": 337,
      "⚡": 338,
      "⛈": 339,
      "✈": 340,
      "✊": 341,
      "✋": 342,
      "✌": 343,
      "✓": 344,
      "✔": 345,
      "✨": 346,
      "✿": 347,
      "❌": 348,
      "❗": 349,
      "❣": 350,
      "❤": 351,
      "⭐": 352,
      "れ": 353,
      "㉫": 354,
      "乃": 355,
      "口": 356,
      "尺": 357,
      "ꜰ": 358,
      "ꜱ": 359,
      "": 360,
      "️": 361,
      "Ｇ": 362,
      "Ｑ": 363,
      "ｂ": 364,
      "ｇ": 365,
      "ｈ": 366,
      "ｍ": 367,
      "ｒ": 368,
      "ｕ": 369,
      "𝐸": 370,
      "𝒢": 371,
      "𝒪": 372,
      "𝒲": 373,
      "𝒷": 374,
      "𝒽": 375,
      "𝓂": 376,
      "𝓅": 377,
      "𝓇": 378,
      "𝓊": 379,
      "𝓑": 380,
      "𝓖": 381,
      "𝓗": 382,
      "𝓘": 383,
      "𝓚": 384,
      "𝓜": 385,
      "𝓝": 386,
      "𝓡": 387,
      "𝓣": 388,
      "𝓤": 389,
      "𝓦": 390,
      "𝓪": 391,
      "𝓫": 392,
      "𝓬": 393,
      "𝓭": 394,
      "𝓮": 395,
      "𝓰": 396,
      "𝓱": 397,
      "𝓲": 398,
      "𝓴": 399,
      "𝓵": 400,
      "𝓶": 401,
      "𝓷": 402,
      "𝓸": 403,
      "𝓹": 404,
      "𝓻": 405,
      "𝓼": 406,
      "𝓽": 407,
      "𝓾": 408,
      "𝓿": 409,
      "𝕬": 410,
      "𝕲": 411,
      "𝕴": 412,
      "𝕶": 413,
      "𝕹": 414,
      "𝕺": 415,
      "𝕿": 416,
      "𝖄": 417,
      "𝖆": 418,
      "𝖇": 419,
      "𝖉": 420,
      "𝖊": 421,
      "𝖋": 422,
      "𝖌": 423,
      "𝖍": 424,
      "𝖎": 425,
      "𝖐": 426,
      "𝖒": 427,
      "𝖓": 428,
      "𝖔": 429,
      "𝖕": 430,
      "𝖗": 431,
      "𝖘": 432,
      "𝖙": 433,
      "𝖚": 434,
      "𝖞": 435,
      "𝖟": 436,
      "𝗖": 437,
      "𝗘": 438,
      "𝗙": 439,
      "𝗟": 440,
      "𝗠": 441,
      "𝗥": 442,
      "𝗪": 443,
      "𝗬": 444,
      "𝗮": 445,
      "𝗲": 446,
      "𝗵": 447,
      "𝗶": 448,
      "𝗹": 449,
      "𝗻": 450,
      "𝗼": 451,
      "𝗿": 452,
      "𝘀": 453,
      "𝘁": 454,
      "𝘂": 455,
      "🅰": 456,
      "🅱": 457,
      "🅳": 458,
      "🅴": 459,
      "🅶": 460,
      "🅷": 461,
      "🅸": 462,
      "🅺": 463,
      "🅻": 464,
      "🅽": 465,
      "🅾": 466,
      "🆁": 467,
      "🆂": 468,
      "🆃": 469,
      "🆄": 470,
      "🆆": 471,
      "🆈": 472,
      "🌀": 473,
      "🌂": 474,
      "🌊": 475,
      "🌍": 476,
      "🌦": 477,
      "🌧": 478,
      "🌨": 479,
      "🌫": 480,
      "🌶": 481,
      "🌻": 482,
      "🌾": 483,
      "🌿": 484,
      "🍄": 485,
      "🍆": 486,
      "🍇": 487,
      "🍉": 488,
      "🍎": 489,
      "🍨": 490,
      "🍬": 491,
      "🍭": 492,
      "🍷": 493,
      "🍺": 494,
      "🍻": 495,
      "🍼": 496,
      "🍽": 497,
      "🎁": 498,
      "🎂": 499,
      "🎅": 500,
      "🎞": 501,
      "🎤": 502,
      "🎥": 503,
      "🎧": 504,
      "🎲": 505,
      "🎶": 506,
      "🎸": 507,
      "🎹": 508,
      "🎺": 509,
      "🎾": 510,
      "🏅": 511,
      "🏆": 512,
      "🏎": 513,
      "🏏": 514,
      "🏐": 515,
      "🏡": 516,
      "🏻": 517,
      "🐄": 518,
      "🐒": 519,
      "🐖": 520,
      "🐜": 521,
      "🐬": 522,
      "🐭": 523,
      "👀": 524,
      "👂": 525,
      "👆": 526,
      "👇": 527,
      "👈": 528,
      "👉": 529,
      "👊": 530,
      "👋": 531,
      "👌": 532,
      "👍": 533,
      "👎": 534,
      "👏": 535,
      "👐": 536,
      "👑": 537,
      "👙": 538,
      "👥": 539,
      "👨": 540,
      "👩": 541,
      "👴": 542,
      "👶": 543,
      "👼": 544,
      "👾": 545,
      "💀": 546,
      "💁": 547,
      "💆": 548,
      "💋": 549,
      "💌": 550,
      "💓": 551,
      "💔": 552,
      "💕": 553,
      "💖": 554,
      "💗": 555,
      "💘": 556,
      "💙": 557,
      "💚": 558,
      "💛": 559,
      "💜": 560,
      "💝": 561,
      "💞": 562,
      "💟": 563,
      "💤": 564,
      "💥": 565,
      "💦": 566,
      "💧": 567,
      "💨": 568,
      "💩": 569,
      "💫": 570,
      "💭": 571,
      "💯": 572,
      "💰": 573,
      "💸": 574,
      "📄": 575,
      "📅": 576,
      "📋": 577,
      "📍": 578,
      "📐": 579,
      "📝": 580,
      "📞": 581,
      "📢": 582,
      "📿": 583,
      "🔎": 584,
      "🔔": 585,
      "🔞": 586,
      "🔥": 587,
      "🔵": 588,
      "🔷": 589,
      "🕓": 590,
      "🕥": 591,
      "🕶": 592,
      "🖕": 593,
      "🖤": 594,
      "🗓": 595,
      "🗣": 596,
      "😀": 597,
      "😁": 598,
      "😂": 599,
      "😃": 600,
      "😄": 601,
      "😅": 602,
      "😆": 603,
      "😇": 604,
      "😈": 605,
      "😉": 606,
      "😊": 607,
      "😋": 608,
      "😌": 609,
      "😍": 610,
      "😎": 611,
      "😏": 612,
      "😐": 613,
      "😑": 614,
      "😒": 615,
      "😓": 616,
      "😔": 617,
      "😕": 618,
      "😖": 619,
      "😗": 620,
      "😘": 621,
      "😚": 622,
      "😜": 623,
      "😝": 624,
      "😞": 625,
      "😟": 626,
      "😠": 627,
      "😡": 628,
      "😢": 629,
      "😣": 630,
      "😤": 631,
      "😥": 632,
      "😧": 633,
      "😨": 634,
      "😩": 635,
      "😪": 636,
      "😫": 637,
      "😬": 638,
      "😭": 639,
      "😮": 640,
      "😯": 641,
      "😰": 642,
      "😱": 643,
      "😲": 644,
      "😳": 645,
      "😴": 646,
      "😵": 647,
      "😶": 648,
      "😸": 649,
      "😹": 650,
      "😻": 651,
      "😼": 652,
      "🙁": 653,
      "🙂": 654,
      "🙃": 655,
      "🙄": 656,
      "🙅": 657,
      "🙆": 658,
      "🙇": 659,
      "🙈": 660,
      "🙊": 661,
      "🙌": 662,
      "🙏": 663,
      "🚀": 664,
      "🚪": 665,
      "🚫": 666,
      "🚴": 667,
      "🛌": 668,
      "🛐": 669,
      "🛡": 670,
      "🤌": 671,
      "🤍": 672,
      "🤎": 673,
      "🤏": 674,
      "🤐": 675,
      "🤑": 676,
      "🤓": 677,
      "🤔": 678,
      "🤕": 679,
      "🤗": 680,
      "🤘": 681,
      "🤙": 682,
      "🤚": 683,
      "🤛": 684,
      "🤝": 685,
      "🤞": 686,
      "🤟": 687,
      "🤡": 688,
      "🤢": 689,
      "🤣": 690,
      "🤤": 691,
      "🤦": 692,
      "🤨": 693,
      "🤩": 694,
      "🤪": 695,
      "🤬": 696,
      "🤭": 697,
      "🤮": 698,
      "🤯": 699,
      "🤲": 700,
      "🤵": 701,
      "🤷": 702,
      "🥂": 703,
      "🥊": 704,
      "🥒": 705,
      "🥕": 706,
      "🥧": 707,
      "🥰": 708,
      "🥱": 709,
      "🥲": 710,
      "🥳": 711,
      "🥴": 712,
      "🥵": 713,
      "🥶": 714,
      "🥹": 715,
      "🥺": 716,
      "🦄": 717,
      "🦇": 718,
      "🦌": 719,
      "🧊": 720,
      "🧐": 721,
      "🧔": 722,
      "🧚": 723,
      "🧠": 724,
      "🧡": 725,
      "🩲": 726,
      "🩴": 727,
      "🩹": 728,
      "🫚": 729,
      "🫠": 730,
      "🫡": 731,
      "🫣": 732,
      "🫥": 733,
      "🫦": 734,
      "🫧": 735,
      "🫲": 736,
      "🫴": 737,
      "🫶": 738,
      "in": 739,
      "th": 740,
      "ro": 741,
      "ed": 742,
      "it": 743,
      "an": 744,
      "ll": 745,
      "er": 746,
      "en": 747,
      "on": 748,
      "om": 749,
      "ing": 750,
      "at": 751,
      "is": 752,
      "to": 753,
      "re": 754,
      "ha": 755,
      "st": 756,
      "Bro": 757,
      "bro": 758,
      "me": 759,
      "the": 760,
      "or": 761,
      "he": 762,
      "ill": 763,
      "ted": 764,
      "ve": 765,
      "ia": 766,
      "..": 767,
      "le": 768,
      "as": 769,
      "ou": 770,
      "id": 771,
      "ow": 772,
      "itted": 773,
      "Med": 774,
      "omitted": 775,
      "Media": 776,
      "ar": 777,
      "Ya": 778,
      "ch": 779,
      "will": 780,
      "oo": 781,
      "ay": 782,
      "ee": 783,
      "ot": 784,
      "Op": 785,
      "and": 786,
      "ut": 787,
      "be": 788,
      "am": 789,
      "Wh": 790,
      "al": 791,
      "ad": 792,
      "wh": 793,
      "es": 794,
      "have": 795,
      "ru": 796,
      "pp": 797,
      "all": 798,
      "​​": 799,
      "et": 800,
      "ome": 801,
      "of": 802,
      "te": 803,
      "ke": 804,
      "sa": 805,
      "se": 806,
      "nd": 807,
      "ic": 808,
      "ly": 809,
      "hh": 810,
      "my": 811,
      "ya": 812,
      "that": 813,
      "Th": 814,
      "for": 815,
      "ere": 816,
      "sh": 817,
      "now": 818,
      "do": 819,
      "ye": 820,
      "ur": 821,
      "No": 822,
      "ent": 823,
      "gh": 824,
      "Ok": 825,
      "one": 826,
      "ab": 827,
      "li": 828,
      "ld": 829,
      "so": 830,
      "was": 831,
      "ac": 832,
      "thing": 833,
      "end": 834,
      "go": 835,
      "ir": 836,
      "ion": 837,
      "....": 838,
      "ta": 839,
      "It": 840,
      "na": 841,
      "this": 842,
      "ust": 843,
      "can": 844,
      "🤣🤣": 845,
      "ith": 846,
      "not": 847,
      "we": 848,
      "ter": 849,
      "day": 850,
      "Wt": 851,
      "​​​​": 852,
      "ge": 853,
      "But": 854,
      "Oh": 855,
      "did": 856,
      "op": 857,
      "said": 858,
      "ght": 859,
      "are": 860,
      "ev": 861,
      "And": 862,
      "if": 863,
      "our": 864,
      "su": 865,
      "cl": 866,
      "ma": 867,
      "tell": 868,
      "de": 869,
      "king": 870,
      "ould": 871,
      "ait": 872,
      "ti": 873,
      "com": 874,
      "us": 875,
      "with": 876,
      "ce": 877,
      "ex": 878,
      "any": 879,
      "up": 880,
      "ri": 881,
      "read": 882,
      "😂😂": 883,
      "no": 884,
      "got": 885,
      "ry": 886,
      "ther": 887,
      "im": 888,
      "mo": 889,
      "rud": 890,
      "don": 891,
      "Che": 892,
      "dk": 893,
      "her": 894,
      "ruh": 895,
      "wor": 896,
      "get": 897,
      "He": 898,
      "abt": 899,
      "!!": 900,
      "ne": 901,
      "call": 902,
      "Wrud": 903,
      "come": 904,
      "What": 905,
      "ave": 906,
      "ag": 907,
      "uc": 908,
      "ich": 909,
      "??": 910,
      "she": 911,
      "Then": 912,
      "stu": 913,
      "some": 914,
      "So": 915,
      "af": 916,
      "ers": 917,
      "The": 918,
      "ss": 919,
      "like": 920,
      "see": 921,
      "tt": 922,
      "just": 923,
      "pl": 924,
      "ind": 925,
      "rom": 926,
      "ell": 927,
      "wan": 928,
      "Wait": 929,
      "rit": 930,
      "then": 931,
      "mm": 932,
      "know": 933,
      "ep": 934,
      "ame": 935,
      "time": 936,
      "lo": 937,
      "out": 938,
      "ink": 939,
      "ok": 940,
      "ine": 941,
      "ery": 942,
      "My": 943,
      "but": 944,
      "mr": 945,
      "🔥🔥": 946,
      "ff": 947,
      "ct": 948,
      "Tell": 949,
      "has": 950,
      "Ch": 951,
      "ked": 952,
      "Ohh": 953,
      "ass": 954,
      "un": 955,
      "they": 956,
      "​​​​​​​​": 957,
      "ain": 958,
      "ven": 959,
      "gi": 960,
      "from": 961,
      "ig": 962,
      "ww": 963,
      "writ": 964,
      "only": 965,
      "won": 966,
      "That": 967,
      "Why": 968,
      "pe": 969,
      "uti": 970,
      "ally": 971,
      "ate": 972,
      "mrw": 973,
      "wt": 974,
      "10": 975,
      "ood": 976,
      "She": 977,
      "How": 978,
      "say": 979,
      "even": 980,
      "In": 981,
      "con": 982,
      "co": 983,
      "pro": 984,
      "la": 985,
      "ation": 986,
      "should": 987,
      "happ": 988,
      "po": 989,
      "aa": 990,
      "ps": 991,
      "ish": 992,
      "send": 993,
      "If": 994,
      "mean": 995,
      "fe": 996,
      "your": 997,
      "il": 998,
      "art": 999,
      "ph": 1000,
      "ice": 1001,
      "per": 1002,
      "stud": 1003,
      "him": 1004,
      "bruh": 1005,
      "how": 1006,
      "ack": 1007,
      "und": 1008,
      "ide": 1009,
      "Okk": 1010,
      "ater": 1011,
      "ight": 1012,
      "there": 1013,
      "tal": 1014,
      "tmrw": 1015,
      "atch": 1016,
      "We": 1017,
      "bo": 1018,
      "pic": 1019,
      "man": 1020,
      "ra": 1021,
      "uz": 1022,
      "here": 1023,
      "cz": 1024,
      "other": 1025,
      "when": 1026,
      "ting": 1027,
      "who": 1028,
      "fuc": 1029,
      "Just": 1030,
      "want": 1031,
      "had": 1032,
      "Idk": 1033,
      "sle": 1034,
      "didn": 1035,
      "Hmm": 1036,
      "Not": 1037,
      "min": 1038,
      "think": 1039,
      "qu": 1040,
      "Oppp": 1041,
      "Abe": 1042,
      "mu": 1043,
      "what": 1044,
      "//": 1045,
      "Now": 1046,
      "ree": 1047,
      "too": 1048,
      "pa": 1049,
      "also": 1050,
      "which": 1051,
      "**": 1052,
      "htt": 1053,
      "sdk": 1054,
      "://": 1055,
      "Am": 1056,
      "💋💋": 1057,
      "https": 1058,
      "take": 1059,
      "its": 1060,
      "happen": 1061,
      "ook": 1062,
      "class": 1063,
      "Opp": 1064,
      "ents": 1065,
      "Na": 1066,
      "by": 1067,
      "Bye": 1068,
      "Don": 1069,
      "tw": 1070,
      "ving": 1071,
      "bye": 1072,
      "har": 1073,
      "give": 1074,
      "write": 1075,
      "fin": 1076,
      "To": 1077,
      "after": 1078,
      "why": 1079,
      "br": 1080,
      "Oye": 1081,
      "ie": 1082,
      "When": 1083,
      "ak": 1084,
      "Yes": 1085,
      "Did": 1086,
      "Bruh": 1087,
      "gu": 1088,
      "sleep": 1089,
      "his": 1090,
      "😭😭": 1091,
      "Cheee": 1092,
      "Let": 1093,
      "act": 1094,
      "mar": 1095,
      "today": 1096,
      "going": 1097,
      "let": 1098,
      "They": 1099,
      "work": 1100,
      "mb": 1101,
      "yy": 1102,
      "💦💦": 1103,
      "ach": 1104,
      "od": 1105,
      "20": 1106,
      "Its": 1107,
      "mes": 1108,
      "came": 1109,
      "oooo": 1110,
      "watch": 1111,
      "...": 1112,
      "sent": 1113,
      "back": 1114,
      "ist": 1115,
      "par": 1116,
      "Send": 1117,
      "every": 1118,
      "ess": 1119,
      "would": 1120,
      "them": 1121,
      "This": 1122,
      "ask": 1123,
      "home": 1124,
      "fa": 1125,
      "fo": 1126,
      "🤣🤣🤣🤣": 1127,
      "lf": 1128,
      "way": 1129,
      "sc": 1130,
      "clg": 1131,
      "fee": 1132,
      "ms": 1133,
      "Nothing": 1134,
      "ol": 1135,
      "wait": 1136,
      "ths": 1137,
      "much": 1138,
      "ram": 1139,
      "were": 1140,
      "​​​​​​​​​​​​​​​​": 1141,
      "ns": 1142,
      "Which": 1143,
      "mins": 1144,
      "Ab": 1145,
      "ver": 1146,
      "jo": 1147,
      "Re": 1148,
      "pt": 1149,
      "irst": 1150,
      "ans": 1151,
      "ike": 1152,
      "See": 1153,
      "ank": 1154,
      "30": 1155,
      "nt": 1156,
      "Who": 1157,
      "own": 1158,
      "Do": 1159,
      "For": 1160,
      "Yup": 1161,
      "ile": 1162,
      "oob": 1163,
      "app": 1164,
      "Bsdk": 1165,
      "need": 1166,
      "pre": 1167,
      "pr": 1168,
      "study": 1169,
      "Cuz": 1170,
      "anta": 1171,
      "est": 1172,
      "something": 1173,
      "ul": 1174,
      "Btw": 1175,
      "bcz": 1176,
      "later": 1177,
      "things": 1178,
      "ory": 1179,
      "ure": 1180,
      "ang": 1181,
      "Wtf": 1182,
      "able": 1183,
      "messa": 1184,
      "very": 1185,
      "🥳🥳": 1186,
      "ng": 1187,
      "sp": 1188,
      "more": 1189,
      "stuff": 1190,
      "Is": 1191,
      "int": 1192,
      "does": 1193,
      "iss": 1194,
      "you": 1195,
      "goo": 1196,
      "ple": 1197,
      "utiya": 1198,
      "self": 1199,
      "ace": 1200,
      "Le": 1201,
      "good": 1202,
      "till": 1203,
      "mom": 1204,
      "ought": 1205,
      "many": 1206,
      "still": 1207,
      "Same": 1208,
      "age": 1209,
      "leave": 1210,
      "feel": 1211,
      "pers": 1212,
      "doing": 1213,
      "Can": 1214,
      "Come": 1215,
      "off": 1216,
      "coming": 1217,
      "Will": 1218,
      "di": 1219,
      "inst": 1220,
      "ext": 1221,
      "ble": 1222,
      "sto": 1223,
      "hall": 1224,
      "finish": 1225,
      "these": 1226,
      "talk": 1227,
      "mber": 1228,
      "ose": 1229,
      "Yaa": 1230,
      "oney": 1231,
      "wont": 1232,
      "ppl": 1233,
      "utiye": 1234,
      "haven": 1235,
      "che": 1236,
      "ous": 1237,
      "ast": 1238,
      "ini": 1239,
      "put": 1240,
      "ence": 1241,
      "Even": 1242,
      "less": 1243,
      "Me": 1244,
      "www": 1245,
      "ies": 1246,
      "than": 1247,
      "meet": 1248,
      "happened": 1249,
      "asked": 1250,
      "ment": 1251,
      "ick": 1252,
      "Where": 1253,
      "lit": 1254,
      "rs": 1255,
      "first": 1256,
      "aybe": 1257,
      "message": 1258,
      "goobe": 1259,
      "😁😁": 1260,
      "ho": 1261,
      "ooo": 1262,
      "soory": 1263,
      "exam": 1264,
      "cle": 1265,
      "start": 1266,
      "ear": 1267,
      "........": 1268,
      "du": 1269,
      "mon": 1270,
      "money": 1271,
      "ck": 1272,
      "book": 1273,
      "uck": 1274,
      "nsd": 1275,
      "anything": 1276,
      "right": 1277,
      "On": 1278,
      "Chee": 1279,
      "reel": 1280,
      "Leave": 1281,
      "bu": 1282,
      "tex": 1283,
      "god": 1284,
      "Gh": 1285,
      "ity": 1286,
      "same": 1287,
      "😂😂😂": 1288,
      "hhh": 1289,
      "ong": 1290,
      "quest": 1291,
      "Or": 1292,
      "mad": 1293,
      "ty": 1294,
      "ily": 1295,
      "line": 1296,
      "🥲🥲": 1297,
      "parents": 1298,
      "tr": 1299,
      "hel": 1300,
      "wanna": 1301,
      "💋💋💋💋": 1302,
      "person": 1303,
      "thought": 1304,
      "Nah": 1305,
      "ny": 1306,
      "15": 1307,
      "av": 1308,
      "where": 1309,
      "side": 1310,
      "went": 1311,
      "Gnsd": 1312,
      "ply": 1313,
      "ught": 1314,
      "dont": 1315,
      "having": 1316,
      "saw": 1317,
      "gr": 1318,
      "Nope": 1319,
      "make": 1320,
      "ake": 1321,
      "inter": 1322,
      "ite": 1323,
      "ions": 1324,
      "notes": 1325,
      "fucking": 1326,
      "Have": 1327,
      "😈😈": 1328,
      "vie": 1329,
      "ard": 1330,
      "sub": 1331,
      "bus": 1332,
      "gon": 1333,
      "ready": 1334,
      "!!!!": 1335,
      "Ghanta": 1336,
      "bl": 1337,
      "life": 1338,
      "Af": 1339,
      "noob": 1340,
      "ten": 1341,
      "round": 1342,
      "iran": 1343,
      "ning": 1344,
      "att": 1345,
      "maths": 1346,
      "new": 1347,
      "kk": 1348,
      "sed": 1349,
      "row": 1350,
      "ks": 1351,
      "dele": 1352,
      "Chu": 1353,
      "cant": 1354,
      "ip": 1355,
      "ser": 1356,
      "year": 1357,
      "ud": 1358,
      "teach": 1359,
      "fam": 1360,
      "called": 1361,
      "net": 1362,
      "while": 1363,
      "mat": 1364,
      "ive": 1365,
      "ts": 1366,
      "stand": 1367,
      "hi": 1368,
      "00": 1369,
      "Yaaa": 1370,
      "Like": 1371,
      "phn": 1372,
      "ugh": 1373,
      "again": 1374,
      "Ex": 1375,
      "gotta": 1376,
      "wro": 1377,
      "eeee": 1378,
      "gir": 1379,
      "text": 1380,
      "Go": 1381,
      "um": 1382,
      "ated": 1383,
      "name": 1384,
      "Abt": 1385,
      "down": 1386,
      "OK": 1387,
      "alot": 1388,
      "gonna": 1389,
      "yet": 1390,
      "Was": 1391,
      "fine": 1392,
      "je": 1393,
      "/?": 1394,
      "mind": 1395,
      "ys": 1396,
      "Ik": 1397,
      "shini": 1398,
      "phone": 1399,
      "done": 1400,
      "sk": 1401,
      "agram": 1402,
      "under": 1403,
      "Got": 1404,
      "ull": 1405,
      "Fuck": 1406,
      "low": 1407,
      "sit": 1408,
      "ial": 1409,
      "instagram": 1410,
      "At": 1411,
      "spe": 1412,
      "whn": 1413,
      "igsh": 1414,
      "girl": 1415,
      "fr": 1416,
      "their": 1417,
      "ner": 1418,
      "ue": 1419,
      "doesn": 1420,
      "vis": 1421,
      "vid": 1422,
      "those": 1423,
      "soc": 1424,
      "Bcz": 1425,
      "ince": 1426,
      "amn": 1427,
      "plan": 1428,
      "ba": 1429,
      "days": 1430,
      "inking": 1431,
      "isn": 1432,
      "Ur": 1433,
      "el": 1434,
      "hhhh": 1435,
      "Sh": 1436,
      "cuz": 1437,
      "Ohhh": 1438,
      "last": 1439,
      "After": 1440,
      "star": 1441,
      "🤣🤣🤣": 1442,
      "whole": 1443,
      "​​​​​​​​​​​​​​​​​​​​​​​​​​​​​​​​": 1444,
      "use": 1445,
      "🥺🥺": 1446,
      "ious": 1447,
      "ually": 1448,
      "getting": 1449,
      "arch": 1450,
      "father": 1451,
      "em": 1452,
      "lesson": 1453,
      "Okay": 1454,
      "ever": 1455,
      "ik": 1456,
      "ways": 1457,
      "finished": 1458,
      "12": 1459,
      "St": 1460,
      "ah": 1461,
      "chutiya": 1462,
      "bit": 1463,
      "Whn": 1464,
      "fuck": 1465,
      "18": 1466,
      "Kk": 1467,
      "fri": 1468,
      "telling": 1469,
      "Maybe": 1470,
      "miss": 1471,
      "night": 1472,
      "🔥🔥🔥🔥": 1473,
      "Chutiye": 1474,
      "worry": 1475,
      "deleted": 1476,
      "tru": 1477,
      "With": 1478,
      "eng": 1479,
      "ja": 1480,
      "kan": 1481,
      "ason": 1482,
      "show": 1483,
      "understand": 1484,
      "link": 1485,
      "nu": 1486,
      "part": 1487,
      "ough": 1488,
      "free": 1489,
      "ant": 1490,
      "erday": 1491,
      "rel": 1492,
      "11": 1493,
      "urn": 1494,
      "???": 1495,
      "oice": 1496,
      "ance": 1497,
      "pics": 1498,
      "Tq": 1499,
      "used": 1500,
      "paper": 1501,
      "......": 1502,
      "family": 1503,
      "eas": 1504,
      "over": 1505,
      "pay": 1506,
      "sad": 1507,
      ".....": 1508,
      "fore": 1509,
      "ft": 1510,
      "look": 1511,
      "ort": 1512,
      "cept": 1513,
      "help": 1514,
      "long": 1515,
      "thinking": 1516,
      "Be": 1517,
      "load": 1518,
      "cont": 1519,
      "answ": 1520,
      "OO": 1521,
      "oll": 1522,
      "test": 1523,
      "dr": 1524,
      "sm": 1525,
      "🤔🤔": 1526,
      "hard": 1527,
      "dad": 1528,
      "eee": 1529,
      "bad": 1530,
      "once": 1531,
      "member": 1532,
      "Damn": 1533,
      "Sed": 1534,
      "sco": 1535,
      "started": 1536,
      "fer": 1537,
      "iv": 1538,
      "since": 1539,
      "form": 1540,
      "bet": 1541,
      "already": 1542,
      "love": 1543,
      "Lol": 1544,
      "wee": 1545,
      "ange": 1546,
      "sec": 1547,
      "cor": 1548,
      "tq": 1549,
      "comple": 1550,
      "plain": 1551,
      "attend": 1552,
      "idk": 1553,
      "movie": 1554,
      "There": 1555,
      "intern": 1556,
      "gin": 1557,
      "online": 1558,
      "real": 1559,
      "around": 1560,
      "kes": 1561,
      "few": 1562,
      "yes": 1563,
      "ject": 1564,
      "friend": 1565,
      "FF": 1566,
      "sis": 1567,
      "sha": 1568,
      "lear": 1569,
      "bsdk": 1570,
      "cut": 1571,
      "tg": 1572,
      "another": 1573,
      "ise": 1574,
      "told": 1575,
      "arshini": 1576,
      "marks": 1577,
      "Nice": 1578,
      "really": 1579,
      "Broo": 1580,
      "written": 1581,
      "saying": 1582,
      "try": 1583,
      "Only": 1584,
      "Call": 1585,
      "HH": 1586,
      "scl": 1587,
      "uu": 1588,
      "ouse": 1589,
      "dif": 1590,
      "gg": 1591,
      "ved": 1592,
      "100": 1593,
      "bf": 1594,
      "next": 1595,
      "ana": 1596,
      "ship": 1597,
      "means": 1598,
      "talking": 1599,
      "itself": 1600,
      "Opppp": 1601,
      "Al": 1602,
      "202": 1603,
      "frnd": 1604,
      "==": 1605,
      "Ma": 1606,
      "dis": 1607,
      "ga": 1608,
      "asking": 1609,
      "matter": 1610,
      "hand": 1611,
      "🤭🤭": 1612,
      "sure": 1613,
      "Tmrw": 1614,
      "thg": 1615,
      "watching": 1616,
      "dy": 1617,
      "cy": 1618,
      "ib": 1619,
      "sing": 1620,
      "comp": 1621,
      "made": 1622,
      "kind": 1623,
      "list": 1624,
      "left": 1625,
      "eep": 1626,
      "conf": 1627,
      "Lets": 1628,
      "feeling": 1629,
      "bs": 1630,
      "ild": 1631,
      "took": 1632,
      "Read": 1633,
      "Every": 1634,
      "Ntg": 1635,
      "voice": 1636,
      ".......": 1637,
      "reading": 1638,
      "EE": 1639,
      "acc": 1640,
      "word": 1641,
      "everything": 1642,
      "stuffs": 1643,
      "ash": 1644,
      "buy": 1645,
      "house": 1646,
      "ried": 1647,
      "both": 1648,
      "might": 1649,
      "orrow": 1650,
      "forgot": 1651,
      "everyone": 1652,
      "erally": 1653,
      "seeing": 1654,
      "join": 1655,
      "story": 1656,
      "Bad": 1657,
      "peri": 1658,
      "Today": 1659,
      "da": 1660,
      "full": 1661,
      "hu": 1662,
      "lt": 1663,
      "wo": 1664,
      "imply": 1665,
      "number": 1666,
      "50": 1667,
      "omorrow": 1668,
      "chu": 1669,
      "!!!": 1670,
      "Too": 1671,
      "kiran": 1672,
      "😡😡": 1673,
      "room": 1674,
      "ary": 1675,
      "Ohk": 1676,
      "question": 1677,
      "face": 1678,
      "ka": 1679,
      "into": 1680,
      "als": 1681,
      "IN": 1682,
      "yaar": 1683,
      "All": 1684,
      "Ha": 1685,
      "sy": 1686,
      "search": 1687,
      "OD": 1688,
      "ible": 1689,
      "ani": 1690,
      "rest": 1691,
      "sterday": 1692,
      "Brooo": 1693,
      "yesterday": 1694,
      "supp": 1695,
      "unch": 1696,
      "gre": 1697,
      "🤯🤯": 1698,
      "become": 1699,
      "times": 1700,
      "didnt": 1701,
      "😭😭😭😭": 1702,
      "anku": 1703,
      "turn": 1704,
      "ired": 1705,
      "Good": 1706,
      "car": 1707,
      "ju": 1708,
      "ners": 1709,
      "remember": 1710,
      "seen": 1711,
      "about": 1712,
      "1st": 1713,
      "could": 1714,
      "mood": 1715,
      "find": 1716,
      "tle": 1717,
      "👊👊": 1718,
      "outu": 1719,
      "manners": 1720,
      "mp": 1721,
      "llow": 1722,
      "ream": 1723,
      "sol": 1724,
      "Br": 1725,
      "Pro": 1726,
      "💋💋💋💋💋💋💋💋": 1727,
      "Noob": 1728,
      "kid": 1729,
      "oom": 1730,
      "zz": 1731,
      "gy": 1732,
      "play": 1733,
      "fucked": 1734,
      "OT": 1735,
      "SS": 1736,
      "hind": 1737,
      "qq": 1738,
      "youtu": 1739,
      "ughty": 1740,
      "years": 1741,
      "ec": 1742,
      "lect": 1743,
      "bi": 1744,
      "char": 1745,
      "pain": 1746,
      "shall": 1747,
      "been": 1748,
      "ala": 1749,
      "explain": 1750,
      "ign": 1751,
      "bar": 1752,
      "dd": 1753,
      "proper": 1754,
      "Cheeee": 1755,
      "Fin": 1756,
      "ca": 1757,
      "hp": 1758,
      "lets": 1759,
      "msg": 1760,
      "download": 1761,
      "😢😢": 1762,
      "ings": 1763,
      "guys": 1764,
      "Vro": 1765,
      "Tanku": 1766,
      "mc": 1767,
      "rn": 1768,
      "ene": 1769,
      "follow": 1770,
      "wrong": 1771,
      "Ahh": 1772,
      "Shall": 1773,
      "gram": 1774,
      "pu": 1775,
      "adi": 1776,
      "urs": 1777,
      "actually": 1778,
      "woke": 1779,
      "gave": 1780,
      "dec": 1781,
      "writing": 1782,
      "TH": 1783,
      "bre": 1784,
      "cru": 1785,
      "iz": 1786,
      "rect": 1787,
      "shit": 1788,
      "poss": 1789,
      "students": 1790,
      "others": 1791,
      "Bc": 1792,
      "Nthg": 1793,
      "vide": 1794,
      "scold": 1795,
      "Any": 1796,
      "Gm": 1797,
      "bike": 1798,
      "tomorrow": 1799,
      "coll": 1800,
      "post": 1801,
      "ku": 1802,
      "ls": 1803,
      "mine": 1804,
      "ised": 1805,
      "ics": 1806,
      "near": 1807,
      "high": 1808,
      "week": 1809,
      "2nd": 1810,
      "Ig": 1811,
      "cess": 1812,
      "inner": 1813,
      "cha": 1814,
      "ied": 1815,
      "ound": 1816,
      "taking": 1817,
      "anyone": 1818,
      "nore": 1819,
      "ci": 1820,
      "cus": 1821,
      "eat": 1822,
      "revis": 1823,
      "head": 1824,
      "sup": 1825,
      "literally": 1826,
      "easy": 1827,
      "gro": 1828,
      "always": 1829,
      "press": 1830,
      "Lit": 1831,
      "Ugh": 1832,
      "loo": 1833,
      "ase": 1834,
      "before": 1835,
      "aag": 1836,
      "gf": 1837,
      "Chutiya": 1838,
      "bring": 1839,
      "possible": 1840,
      "Kiran": 1841,
      "cer": 1842,
      "aren": 1843,
      "del": 1844,
      "🥳🥳🥳🥳": 1845,
      "questions": 1846,
      "wrote": 1847,
      "der": 1848,
      "wake": 1849,
      "🔥🔥🔥": 1850,
      "From": 1851,
      "care": 1852,
      "hur": 1853,
      "lunch": 1854,
      "whom": 1855,
      "main": 1856,
      "😂😂😂😂": 1857,
      "AN": 1858,
      "Com": 1859,
      "Mc": 1860,
      "cted": 1861,
      "df": 1862,
      "wasn": 1863,
      "Thats": 1864,
      "By": 1865,
      "Low": 1866,
      "Wc": 1867,
      "maybe": 1868,
      "ste": 1869,
      "given": 1870,
      "colle": 1871,
      "Ask": 1872,
      "yen": 1873,
      "brother": 1874,
      "Opop": 1875,
      "First": 1876,
      "med": 1877,
      "nice": 1878,
      "wish": 1879,
      "chat": 1880,
      "ific": 1881,
      "okk": 1882,
      "finite": 1883,
      "answer": 1884,
      "Sle": 1885,
      "hate": 1886,
      "ii": 1887,
      "opp": 1888,
      "well": 1889,
      "maad": 1890,
      "proble": 1891,
      "200": 1892,
      "studying": 1893,
      "Gotta": 1894,
      "​​​​​​​​​​​​​​​​​​​​​​​​​​​​​​​​​​​​​​​​​​​​​​​​​​​​​​​​​​​​​​​​": 1895,
      "keep": 1896,
      "reason": 1897,
      "wear": 1898,
      "complete": 1899,
      "Still": 1900,
      "Writ": 1901,
      "cr": 1902,
      "eve": 1903,
      "mor": 1904,
      "old": 1905,
      "hav": 1906,
      "begin": 1907,
      "place": 1908,
      "evening": 1909,
      "fast": 1910,
      "dou": 1911,
      "ata": 1912,
      "wanted": 1913,
      "ult": 1914,
      "little": 1915,
      "video": 1916,
      "Your": 1917,
      "sir": 1918,
      "enough": 1919,
      "chill": 1920,
      "most": 1921,
      "share": 1922,
      "group": 1923,
      "bed": 1924,
      "pass": 1925,
      "sat": 1926,
      "tc": 1927,
      "tu": 1928,
      "ront": 1929,
      "reply": 1930,
      "someone": 1931,
      "ction": 1932,
      "finitely": 1933,
      "Ye": 1934,
      "add": 1935,
      "cycle": 1936,
      "40": 1937,
      "CE": 1938,
      "Later": 1939,
      "ire": 1940,
      "lly": 1941,
      "comm": 1942,
      "💦💦💦💦": 1943,
      "16": 1944,
      "Are": 1945,
      "Mon": 1946,
      "ail": 1947,
      "cre": 1948,
      "pdf": 1949,
      "water": 1950,
      "mother": 1951,
      "talked": 1952,
      "else": 1953,
      "listen": 1954,
      "properly": 1955,
      "Mee": 1956,
      "Sure": 1957,
      "hrs": 1958,
      "atte": 1959,
      "etc": 1960,
      "busy": 1961,
      "Should": 1962,
      "Bru": 1963,
      "IT": 1964,
      "dinner": 1965,
      "fre": 1966,
      "hr": 1967,
      "ria": 1968,
      "oma": 1969,
      "resu": 1970,
      "Brooooo": 1971,
      "Broooo": 1972,
      "child": 1973,
      "amd": 1974,
      "giving": 1975,
      "ital": 1976,
      "ical": 1977,
      "ploma": 1978,
      "true": 1979,
      "relation": 1980,
      "single": 1981,
      "45": 1982,
      "Bo": 1983,
      "Of": 1984,
      "Some": 1985,
      "ding": 1986,
      "ime": 1987,
      "led": 1988,
      "tion": 1989,
      "sums": 1990,
      "sheet": 1991,
      "yyy": 1992,
      "job": 1993,
      "months": 1994,
      "Loll": 1995,
      "Miss": 1996,
      "Umm": 1997,
      "cal": 1998,
      "fl": 1999,
      "rd": 2000,
      "omet": 2001,
      "sci": 2002,
      "apply": 2003,
      "Rich": 2004,
      "Simply": 2005,
      "ki": 2006,
      "anna": 2007,
      "crush": 2008,
      "Till": 2009,
      "Take": 2010,
      "bt": 2011,
      "ji": 2012,
      "mid": 2013,
      "***": 2014,
      "better": 2015,
      "ob": 2016,
      "stay": 2017,
      "Wassup": 2018,
      "internals": 2019,
      "Sleep": 2020,
      "riage": 2021,
      "Cl": 2022,
      "lot": 2023,
      "iness": 2024,
      "les": 2025,
      "ched": 2026,
      "chutiye": 2027,
      "acti": 2028,
      "comes": 2029,
      "knows": 2030,
      "26": 2031,
      "Hu": 2032,
      "bab": 2033,
      "dist": 2034,
      "ful": 2035,
      "lab": 2036,
      "era": 2037,
      "iday": 2038,
      "definitely": 2039,
      "without": 2040,
      "Oppppp": 2041,
      "iously": 2042,
      "tqtq": 2043,
      "cum": 2044,
      "each": 2045,
      "ric": 2046,
      "upp": 2047,
      "imp": 2048,
      "front": 2049,
      "mis": 2050,
      "ned": 2051,
      "val": 2052,
      "open": 2053,
      "cond": 2054,
      "ER": 2055,
      "best": 2056,
      "ada": 2057,
      "????": 2058,
      "Dont": 2059,
      "clear": 2060,
      "small": 2061,
      "differ": 2062,
      "cour": 2063,
      "gle": 2064,
      "pri": 2065,
      "va": 2066,
      "being": 2067,
      "erest": 2068,
      "working": 2069,
      "diploma": 2070,
      "trave": 2071,
      "break": 2072,
      "au": 2073,
      "ix": 2074,
      "osed": 2075,
      "such": 2076,
      "laugh": 2077,
      "happy": 2078,
      "happens": 2079,
      "Really": 2080,
      "Monday": 2081,
      "25": 2082,
      "BR": 2083,
      "Gn": 2084,
      "dream": 2085,
      "ore": 2086,
      "pen": 2087,
      "ering": 2088,
      "toge": 2089,
      "stru": 2090,
      "Yah": 2091,
      "marriage": 2092,
      "joy": 2093,
      "girls": 2094,
      "learn": 2095,
      "14": 2096,
      "uation": 2097,
      "vel": 2098,
      "together": 2099,
      "An": 2100,
      "Noo": 2101,
      "Pl": 2102,
      "Right": 2103,
      "cent": 2104,
      "darshini": 2105,
      "fun": 2106,
      "ron": 2107,
      "ount": 2108,
      "ries": 2109,
      "sleeping": 2110,
      "scene": 2111,
      "hpnd": 2112,
      "mit": 2113,
      "must": 2114,
      "sen": 2115,
      "inda": 2116,
      "boi": 2117,
      "grand": 2118,
      "Con": 2119,
      "cur": 2120,
      "cry": 2121,
      "mal": 2122,
      "nor": 2123,
      "alli": 2124,
      "sem": 2125,
      "ends": 2126,
      "model": 2127,
      "boy": 2128,
      "Bol": 2129,
      "ating": 2130,
      "tim": 2131,
      "ffff": 2132,
      "Everyone": 2133,
      "99": 2134,
      "AT": 2135,
      "Oy": 2136,
      "Tru": 2137,
      "gay": 2138,
      "late": 2139,
      "si": 2140,
      "change": 2141,
      "makes": 2142,
      "interest": 2143,
      "month": 2144,
      "contin": 2145,
      "ING": 2146,
      "Meeting": 2147,
      "3rd": 2148,
      "ap": 2149,
      "ath": 2150,
      "bor": 2151,
      "ling": 2152,
      "😘😘": 2153,
      "top": 2154,
      "pper": 2155,
      "season": 2156,
      "App": 2157,
      "Lod": 2158,
      "fight": 2159,
      "kill": 2160,
      "tired": 2161,
      "ener": 2162,
      "Whr": 2163,
      "using": 2164,
      "outside": 2165,
      "slept": 2166,
      "situation": 2167,
      "Atb": 2168,
      "havent": 2169,
      "Man": 2170,
      "big": 2171,
      "may": 2172,
      "nib": 2173,
      "happening": 2174,
      "view": 2175,
      "lowde": 2176,
      "social": 2177,
      "problem": 2178,
      "90": 2179,
      "bc": 2180,
      "oc": 2181,
      "uk": 2182,
      "wal": 2183,
      "ween": 2184,
      "pick": 2185,
      "angry": 2186,
      "messag": 2187,
      "Ah": 2188,
      "vro": 2189,
      "tor": 2190,
      "pped": 2191,
      "nath": 2192,
      "sum": 2193,
      "rich": 2194,
      "mrng": 2195,
      "utiy": 2196,
      "code": 2197,
      "early": 2198,
      "college": 2199,
      "Act": 2200,
      "ature": 2201,
      "rep": 2202,
      "broo": 2203,
      "Chill": 2204,
      "Missed": 2205,
      "As": 2206,
      "bas": 2207,
      "set": 2208,
      "vi": 2209,
      "chang": 2210,
      "lessons": 2211,
      "frnds": 2212,
      "looking": 2213,
      "418": 2214,
      "Text": 2215,
      "sw": 2216,
      "ended": 2217,
      "Cheeeee": 2218,
      "between": 2219,
      "hindi": 2220,
      "De": 2221,
      "Ind": 2222,
      "ON": 2223,
      "SA": 2224,
      "Yupp": 2225,
      "elect": 2226,
      "sal": 2227,
      "war": 2228,
      "ates": 2229,
      "tech": 2230,
      "bran": 2231,
      "kinda": 2232,
      "junath": 2233,
      "19": 2234,
      "UC": 2235,
      "ai": 2236,
      "date": 2237,
      "fic": 2238,
      "hot": 2239,
      "wif": 2240,
      "uture": 2241,
      "Ohhhh": 2242,
      "spital": 2243,
      "answers": 2244,
      "Actually": 2245,
      "LL": 2246,
      "ago": 2247,
      "mus": 2248,
      "ness": 2249,
      "str": 2250,
      "ication": 2251,
      "lied": 2252,
      "says": 2253,
      "idea": 2254,
      "print": 2255,
      "Maths": 2256,
      "supposed": 2257,
      "0p": 2258,
      "GOT": 2259,
      "RE": 2260,
      "Sry": 2261,
      "Watch": 2262,
      "inv": 2263,
      "ited": 2264,
      "ond": 2265,
      "uring": 2266,
      "ages": 2267,
      "guy": 2268,
      "13": 2269,
      "sr": 2270,
      "wrud": 2271,
      "half": 2272,
      "hell": 2273,
      "key": 2274,
      "naughty": 2275,
      "Naught": 2276,
      "spec": 2277,
      "bath": 2278,
      "Ignore": 2279,
      "morning": 2280,
      "?!": 2281,
      "Her": 2282,
      "Had": 2283,
      "Kan": 2284,
      "ME": 2285,
      "emo": 2286,
      "gra": 2287,
      "ken": 2288,
      "knew": 2289,
      "red": 2290,
      "inside": 2291,
      "heart": 2292,
      "world": 2293,
      "realised": 2294,
      "cute": 2295,
      "24": 2296,
      "70": 2297,
      "Home": 2298,
      "Wru": 2299,
      "Wanna": 2300,
      "cop": 2301,
      "ton": 2302,
      "though": 2303,
      "ool": 2304,
      "classes": 2305,
      "🤣🤣🤣🤣🤣": 2306,
      "grp": 2307,
      "speak": 2308,
      "Ro": 2309,
      "fli": 2310,
      "sur": 2311,
      "tick": 2312,
      "least": 2313,
      "body": 2314,
      "meeting": 2315,
      "subject": 2316,
      "submit": 2317,
      "Ahhh": 2318,
      "Get": 2319,
      "His": 2320,
      "PP": 2321,
      "Wor": 2322,
      "btw": 2323,
      "data": 2324,
      "future": 2325,
      "hol": 2326,
      "lp": 2327,
      "ren": 2328,
      "smo": 2329,
      "sign": 2330,
      "vill": 2331,
      "wc": 2332,
      "😆😆": 2333,
      "rough": 2334,
      "Wts": 2335,
      "within": 2336,
      "Cheeeeeee": 2337,
      "Yeah": 2338,
      "60": 2339,
      "Done": 2340,
      "Mo": 2341,
      "nk": 2342,
      "except": 2343,
      "Soc": 2344,
      "tttt": 2345,
      "guess": 2346,
      "check": 2347,
      ".........": 2348,
      "💋💋💋💋💋💋💋💋💋💋💋💋💋💋💋💋": 2349,
      "Our": 2350,
      "Sat": 2351,
      "kar": 2352,
      "mf": 2353,
      "rr": 2354,
      "Yaya": 2355,
      "thats": 2356,
      "brain": 2357,
      "akka": 2358,
      "😁😁😁": 2359,
      "series": 2360,
      "igshid": 2361,
      "aun": 2362,
      "men": 2363,
      "tri": 2364,
      "ons": 2365,
      "ative": 2366,
      "live": 2367,
      "ished": 2368,
      "type": 2369,
      "friends": 2370,
      "ailable": 2371,
      "23": 2372,
      "Fee": 2373,
      "Se": 2374,
      "Time": 2375,
      "ced": 2376,
      "cam": 2377,
      "lu": 2378,
      "mam": 2379,
      "song": 2380,
      "anj": 2381,
      "ones": 2382,
      "reach": 2383,
      "Okok": 2384,
      "clo": 2385,
      "move": 2386,
      "lost": 2387,
      "meaning": 2388,
      "Naughty": 2389,
      "hospital": 2390,
      "period": 2391,
      "THE": 2392,
      "Eng": 2393,
      "Jo": 2394,
      "ball": 2395,
      "bang": 2396,
      "duc": 2397,
      "roll": 2398,
      "ress": 2399,
      "orts": 2400,
      "andu": 2401,
      "urb": 2402,
      "sore": 2403,
      "ope": 2404,
      "noon": 2405,
      "wtf": 2406,
      "Inter": 2407,
      "shouldn": 2408,
      "Nahh": 2409,
      "letter": 2410,
      "waiting": 2411,
      "🥲🥲🥲": 2412,
      "teacher": 2413,
      "True": 2414,
      "Hm": 2415,
      "ID": 2416,
      "Ne": 2417,
      "Noooo": 2418,
      "Pr": 2419,
      "Sa": 2420,
      "Wow": 2421,
      "Zoom": 2422,
      "dp": 2423,
      "ual": 2424,
      "leg": 2425,
      "beat": 2426,
      "conne": 2427,
      "point": 2428,
      "****": 2429,
      "yyyy": 2430,
      "Yaaaa": 2431,
      "mission": 2432,
      "Also": 2433,
      "confir": 2434,
      "timings": 2435,
      "Came": 2436,
      "Un": 2437,
      "aking": 2438,
      "mot": 2439,
      "viously": 2440,
      "😍😍": 2441,
      "tha": 2442,
      "react": 2443,
      "mech": 2444,
      "seat": 2445,
      "mag": 2446,
      "cell": 2447,
      "nothing": 2448,
      "harshini": 2449,
      "😭😭😭": 2450,
      "FFFF": 2451,
      "carry": 2452,
      "doubt": 2453,
      "sheets": 2454,
      "normal": 2455,
      "BE": 2456,
      "Here": 2457,
      "Nooo": 2458,
      "WF": 2459,
      "ber": 2460,
      "hor": 2461,
      "kh": 2462,
      "nada": 2463,
      "pend": 2464,
      "tific": 2465,
      "beli": 2466,
      "abus": 2467,
      "actly": 2468,
      "pract": 2469,
      "stop": 2470,
      "Means": 2471,
      "example": 2472,
      "engine": 2473,
      "drink": 2474,
      "correct": 2475,
      "different": 2476,
      "AI": 2477,
      "Om": 2478,
      "bru": 2479,
      "bank": 2480,
      "spo": 2481,
      "ward": 2482,
      "hair": 2483,
      "level": 2484,
      "shop": 2485,
      "irt": 2486,
      "close": 2487,
      "making": 2488,
      "loc": 2489,
      "col": 2490,
      "cost": 2491,
      "felt": 2492,
      "🤣🤣🤣🤣🤣🤣🤣🤣": 2493,
      "Does": 2494,
      "serious": 2495,
      "perience": 2496,
      "turned": 2497,
      "ize": 2498,
      "Dr": 2499,
      "ST": 2500,
      "dar": 2501,
      "nin": 2502,
      "illa": 2503,
      "pppp": 2504,
      "gud": 2505,
      "exams": 2506,
      "internship": 2507,
      "HHHH": 2508,
      "words": 2509,
      "emoji": 2510,
      "80": 2511,
      "Av": 2512,
      "CH": 2513,
      "One": 2514,
      "Po": 2515,
      "Rl": 2516,
      "Su": 2517,
      "WH": 2518,
      "YA": 2519,
      "cm": 2520,
      "ither": 2521,
      "indust": 2522,
      "black": 2523,
      "🥺🥺🥺🥺": 2524,
      "party": 2525,
      "qqqq": 2526,
      "ec2": 2527,
      "Finally": 2528,
      "Writing": 2529,
      "result": 2530,
      "418ec2": 2531,
      "holiday": 2532,
      "Bi": 2533,
      "Mz": 2534,
      "You": 2535,
      "cu": 2536,
      "food": 2537,
      "file": 2538,
      "imes": 2539,
      "rain": 2540,
      "llabus": 2541,
      "enjoy": 2542,
      "ution": 2543,
      "takes": 2544,
      "option": 2545,
      "uni": 2546,
      "💦💦💦": 2547,
      "!!!!!": 2548,
      "emot": 2549,
      "Stud": 2550,
      "youtube": 2551,
      "bio": 2552,
      "certific": 2553,
      "fresh": 2554,
      "4th": 2555,
      "Day": 2556,
      "FUC": 2557,
      "Kinda": 2558,
      "found": 2559,
      "hour": 2560,
      "oh": 2561,
      "sd": 2562,
      "through": 2563,
      "cover": 2564,
      "delete": 2565,
      "Damnn": 2566,
      "diffic": 2567,
      "ometimes": 2568,
      "travel": 2569,
      ");": 2570,
      "17": 2571,
      "HM": 2572,
      "Sci": 2573,
      "bha": 2574,
      "gm": 2575,
      "pm": 2576,
      "sid": 2577,
      "simply": 2578,
      "table": 2579,
      "myself": 2580,
      "indu": 2581,
      "okay": 2582,
      "unable": 2583,
      "studies": 2584,
      "papers": 2585,
      "completed": 2586,
      "discus": 2587,
      "syllabus": 2588,
      "Bruhh": 2589,
      "Loda": 2590,
      "village": 2591,
      "En": 2592,
      "OU": 2593,
      "Pakka": 2594,
      "dle": 2595,
      "pill": 2596,
      "soooo": 2597,
      "iting": 2598,
      "ann": 2599,
      "tough": 2600,
      "oun": 2601,
      "ara": 2602,
      "arr": 2603,
      "While": 2604,
      "shan": 2605,
      "tain": 2606,
      "ousin": 2607,
      "​​​​​​​​​​​​​​​​​​​​​​​​​​​​​​​​​​​​​​​​​​​​​​​​​​​​​​​​​​​​​​​​​​​​​​​​​​​​​​​​​​​​​​​​​​​​​​​​​​​​​​​​​​​​​​​​​​​​​​​​​​​​​​​​": 2608,
      "FUCK": 2609,
      "GG": 2610,
      "HA": 2611,
      "LE": 2612,
      "Tu": 2613,
      "fill": 2614,
      "fever": 2615,
      "ger": 2616,
      "hen": 2617,
      "pus": 2618,
      "rol": 2619,
      "ati": 2620,
      "lapp": 2621,
      "watched": 2622,
      "Abee": 2623,
      "typ": 2624,
      "available": 2625,
      "archod": 2626,
      "bitch": 2627,
      "OOOO": 2628,
      "charge": 2629,
      "changed": 2630,
      "branch": 2631,
      "09": 2632,
      "Bl": 2633,
      "Mine": 2634,
      "bought": 2635,
      "cousin": 2636,
      "dro": 2637,
      "die": 2638,
      "fing": 2639,
      "os": 2640,
      "son": 2641,
      "info": 2642,
      "meth": 2643,
      "chod": 2644,
      "alone": 2645,
      "suc": 2646,
      "peace": 2647,
      "aaaa": 2648,
      "mark": 2649,
      "works": 2650,
      "certificate": 2651,
      "Bit": 2652,
      "Sund": 2653,
      "Urs": 2654,
      "Yest": 2655,
      "__": 2656,
      "gn": 2657,
      "lou": 2658,
      "mil": 2659,
      "pow": 2660,
      "🤩🤩": 2661,
      "taken": 2662,
      "rive": 2663,
      "worried": 2664,
      "hasn": 2665,
      "project": 2666,
      "tood": 2667,
      "spend": 2668,
      "teachers": 2669,
      "score": 2670,
      "cord": 2671,
      "Reading": 2672,
      "mistake": 2673,
      "laughing": 2674,
      "MC": 2675,
      "Mad": 2676,
      "Ph": 2677,
      "ZA": 2678,
      "fac": 2679,
      "ove": 2680,
      "sch": 2681,
      "😩😩": 2682,
      "topic": 2683,
      "order": 2684,
      "hear": 2685,
      "short": 2686,
      "shirt": 2687,
      "These": 2688,
      "lakh": 2689,
      "studied": 2690,
      "unders": 2691,
      "Gnsdtc": 2692,
      "great": 2693,
      "Anyways": 2694,
      "Apply": 2695,
      "lappy": 2696,
      "Yesterday": 2697,
      "bat": 2698,
      "band": 2699,
      "det": 2700,
      "ero": 2701,
      "eli": 2702,
      "fit": 2703,
      "gone": 2704,
      "gif": 2705,
      "atus": 2706,
      "heard": 2707,
      "beku": 2708,
      "ruth": 2709,
      "urday": 2710,
      "light": 2711,
      "fail": 2712,
      "aste": 2713,
      "books": 2714,
      "Join": 2715,
      "Intern": 2716,
      "difficult": 2717,
      "Sunday": 2718,
      "Fuc": 2719,
      "OP": 2720,
      "cs": 2721,
      "cet": 2722,
      "kiss": 2723,
      "ring": 2724,
      "ered": 2725,
      "ister": 2726,
      "met": 2727,
      "ident": 2728,
      "white": 2729,
      "esday": 2730,
      "soon": 2731,
      "mail": 2732,
      "readed": 2733,
      "fff": 2734,
      "law": 2735,
      "brk": 2736,
      "😈😈😈": 2737,
      "chutiyap": 2738,
      "company": 2739,
      "middle": 2740,
      "motiv": 2741,
      "Study": 2742,
      "Fine": 2743,
      "Link": 2744,
      "MT": 2745,
      "TO": 2746,
      "lish": 2747,
      "🤮🤮": 2748,
      "ines": 2749,
      "throw": 2750,
      "reg": 2751,
      "reen": 2752,
      "shorts": 2753,
      "fect": 2754,
      "board": 2755,
      "sleepy": 2756,
      "trust": 2757,
      "Finished": 2758,
      "Both": 2759,
      "labour": 2760,
      "walk": 2761,
      "Saturday": 2762,
      "spoil": 2763,
      "BiN": 2764,
      "pillow": 2765,
      "5k": 2766,
      "Give": 2767,
      "Ob": 2768,
      "Say": 2769,
      "bot": 2770,
      "ces": 2771,
      "ded": 2772,
      "during": 2773,
      "lZA": 2774,
      "inform": 2775,
      "ills": 2776,
      "asi": 2777,
      "second": 2778,
      "Thank": 2779,
      "forget": 2780,
      "sho": 2781,
      "ache": 2782,
      "10th": 2783,
      "probab": 2784,
      "feature": 2785,
      "ility": 2786,
      "marry": 2787,
      "prbl": 2788,
      "reels": 2789,
      "planned": 2790,
      "fully": 2791,
      "ODBiN": 2792,
      "steal": 2793,
      "ledge": 2794,
      "musli": 2795,
      "graph": 2796,
      "WFlZA": 2797,
      "RlODBiN": 2798,
      "MzRlODBiN": 2799,
      "method": 2800,
      "MzRlODBiNWFlZA": 2801,
      "69": 2802,
      "AL": 2803,
      "Ahhhh": 2804,
      "Tutiya": 2805,
      "des": 2806,
      "jc": 2807,
      "nam": 2808,
      "sil": 2809,
      "inf": 2810,
      "ute": 2811,
      "sage": 2812,
      "icle": 2813,
      "gest": 2814,
      "agon": 2815,
      "lore": 2816,
      "lock": 2817,
      "poor": 2818,
      "mul": 2819,
      "two": 2820,
      "Cheeeeee": 2821,
      "mbers": 2822,
      "direct": 2823,
      "kannada": 2824,
      "human": 2825,
      "kids": 2826,
      "science": 2827,
      "Class": 2828,
      "tonight": 2829,
      "understood": 2830,
      "04": 2831,
      "27": 2832,
      "28": 2833,
      "Mes": 2834,
      "SH": 2835,
      "gb": 2836,
      "nly": 2837,
      "pages": 2838,
      "s3": 2839,
      "vate": 2840,
      "🥳🔥": 2841,
      "sex": 2842,
      "mysr": 2843,
      "gets": 2844,
      "indi": 2845,
      "log": 2846,
      "ignore": 2847,
      "ations": 2848,
      "married": 2849,
      "workout": 2850,
      "google": 2851,
      "mention": 2852,
      "bull": 2853,
      "news": 2854,
      "visit": 2855,
      "Write": 2856,
      "CET": 2857,
      "disturb": 2858,
      "course": 2859,
      "1k": 2860,
      "Ac": 2861,
      "Near": 2862,
      "TV": 2863,
      "dru": 2864,
      "eyes": 2865,
      "gen": 2866,
      "hod": 2867,
      "sam": 2868,
      "wd": 2869,
      "wom": 2870,
      "zoom": 2871,
      "ina": 2872,
      "ities": 2873,
      "ret": 2874,
      "record": 2875,
      "state": 2876,
      "sun": 2877,
      "eps": 2878,
      "uncle": 2879,
      "focus": 2880,
      "screen": 2881,
      "extra": 2882,
      "related": 2883,
      "sister": 2884,
      "😡😡😡😡": 2885,
      "playing": 2886,
      "continue": 2887,
      "believe": 2888,
      "?*": 2889,
      "Ar": 2890,
      "Bho": 2891,
      "EN": 2892,
      "Goo": 2893,
      "Lund": 2894,
      "ML": 2895,
      "Next": 2896,
      "Well": 2897,
      "bir": 2898,
      "den": 2899,
      "rank": 2900,
      "tried": 2901,
      "ude": 2902,
      "reat": 2903,
      "veh": 2904,
      "expe": 2905,
      "plzz": 2906,
      "Chutiy": 2907,
      "wts": 2908,
      "bol": 2909,
      "prepar": 2910,
      "..........": 2911,
      "spect": 2912,
      "huge": 2913,
      "aniya": 2914,
      "gym": 2915,
      "revise": 2916,
      "pressed": 2917,
      "BRO": 2918,
      "grandma": 2919,
      "swit": 2920,
      "5th": 2921,
      "Happ": 2922,
      "Sha": 2923,
      "Sup": 2924,
      "rw": 2925,
      "sala": 2926,
      "brooo": 2927,
      "lea": 2928,
      "ari": 2929,
      "web": 2930,
      "imple": 2931,
      "aff": 2932,
      "ttt": 2933,
      "wwww": 2934,
      "lap": 2935,
      "meant": 2936,
      "wants": 2937,
      "🤣🤣🤣🤣🤣🤣": 2938,
      "Shit": 2939,
      "baratte": 2940,
      "energy": 2941,
      "replied": 2942,
      "based": 2943,
      "India": 2944,
      "wife": 2945,
      "confirm": 2946,
      "Omg": 2947,
      "industry": 2948,
      "IS": 2949,
      "Id": 2950,
      "Last": 2951,
      "MP": 2952,
      "MS": 2953,
      "Nag": 2954,
      "bal": 2955,
      "either": 2956,
      "hang": 2957,
      "ments": 2958,
      "anu": 2959,
      "res": 2960,
      "ared": 2961,
      "beside": 2962,
      "knowledge": 2963,
      "lose": 2964,
      "lax": 2965,
      "quick": 2966,
      "muga": 2967,
      "host": 2968,
      "Except": 2969,
      "import": 2970,
      "ronics": 2971,
      "copy": 2972,
      "power": 2973,
      "Message": 2974,
      "500": 2975,
      "?\"": 2976,
      "Adi": 2977,
      "Fr": 2978,
      "Many": 2979,
      "OR": 2980,
      "dany": 2981,
      "damn": 2982,
      "lan": 2983,
      "yas": 2984,
      "zain": 2985,
      "resp": 2986,
      "andana": 2987,
      "run": 2988,
      "taku": 2989,
      "seems": 2990,
      "tty": 2991,
      "ately": 2992,
      "manage": 2993,
      "Going": 2994,
      "ference": 2995,
      "learning": 2996,
      "trying": 2997,
      "Maja": 2998,
      "nibba": 2999,
      "salary": 3000,
      "ticket": 3001,
      "wcwc": 3002,
      "Feeling": 3003,
      "EC": 3004,
      "Gud": 3005,
      "Ho": 3006,
      "away": 3007,
      "bag": 3008,
      "case": 3009,
      "fall": 3010,
      "mi": 3011,
      "pur": 3012,
      "sry": 3013,
      "wer": 3014,
      "incl": 3015,
      "ition": 3016,
      "status": 3017,
      "ided": 3018,
      "ayana": 3019,
      "alla": 3020,
      "shi": 3021,
      "wash": 3022,
      "ung": 3023,
      "rah": 3024,
      "gives": 3025,
      "ches": 3026,
      "trans": 3027,
      "looks": 3028,
      "Behen": 3029,
      "solve": 3030,
      "decis": 3031,
      "Lowde": 3032,
      "crying": 3033,
      "Manjunath": 3034,
      "flir": 3035,
      "aunty": 3036,
      "banglore": 3037,
      "colour": 3038,
      "milk": 3039,
      "2k": 3040,
      "HOD": 3041,
      "Mar": 3042,
      "bri": 3043,
      "cul": 3044,
      "cbs": 3045,
      "fact": 3046,
      "gs": 3047,
      "igh": 3048,
      "soo": 3049,
      "ane": 3050,
      "remind": 3051,
      "stick": 3052,
      "adv": 3053,
      "ically": 3054,
      "accept": 3055,
      "node": 3056,
      "calling": 3057,
      "Yesss": 3058,
      "😁😁😁😁": 3059,
      "starting": 3060,
      "kka": 3061,
      "Exam": 3062,
      "planning": 3063,
      "truth": 3064,
      "helping": 3065,
      "2021": 3066,
      "🤭🤭🤭🤭": 3067,
      "Comp": 3068,
      "activ": 3069,
      "tqtqtqtq": 3070,
      "nibbi": 3071,
      "messaged": 3072,
      "electric": 3073,
      "🥳🔥🥳🔥": 3074,
      "21": 3075,
      "Darshini": 3076,
      "WT": 3077,
      "dia": 3078,
      "fu": 3079,
      "hw": 3080,
      "hood": 3081,
      "sound": 3082,
      "ØP": 3083,
      "ens": 3084,
      "respect": 3085,
      "liked": 3086,
      "tery": 3087,
      "consid": 3088,
      "happend": 3089,
      "pose": 3090,
      "phy": 3091,
      "asks": 3092,
      "fees": 3093,
      "Doing": 3094,
      "appl": 3095,
      "appro": 3096,
      "thana": 3097,
      "business": 3098,
      "easily": 3099,
      "contact": 3100,
      "🤔🤔🤔": 3101,
      "confused": 3102,
      "EEEE": 3103,
      "👊👊👊": 3104,
      "chap": 3105,
      "flw": 3106,
      "value": 3107,
      "boring": 3108,
      "Obviously": 3109,
      "6th": 3110,
      "AM": 3111,
      "Car": 3112,
      "God": 3113,
      "KK": 3114,
      "Lo": 3115,
      "Lou": 3116,
      "Pass": 3117,
      "Top": 3118,
      "Yep": 3119,
      "dev": 3120,
      "gar": 3121,
      "nie": 3122,
      "never": 3123,
      "py": 3124,
      "shar": 3125,
      "vir": 3126,
      "yo": 3127,
      "topper": 3128,
      "requ": 3129,
      "regre": 3130,
      "return": 3131,
      "lead": 3132,
      "esh": 3133,
      "ention": 3134,
      "cancell": 3135,
      "mast": 3136,
      "plz": 3137,
      "wtsp": 3138,
      "sending": 3139,
      "jobs": 3140,
      "🥳🥳🥳": 3141,
      "uuu": 3142,
      "Sleeping": 3143,
      "sense": 3144,
      "Madarchod": 3145,
      "prblm": 3146,
      "leaving": 3147,
      "AS": 3148,
      "Ak": 3149,
      "Cu": 3150,
      "List": 3151,
      "Oo": 3152,
      "Since": 3153,
      "Wr": 3154,
      "ece": 3155,
      "fig": 3156,
      "nn": 3157,
      "😂🤣": 3158,
      "lling": 3159,
      "erthana": 3160,
      "chance": 3161,
      "ayan": 3162,
      "exc": 3163,
      "worries": 3164,
      "Whats": 3165,
      "cold": 3166,
      "student": 3167,
      "ques": 3168,
      "chem": 3169,
      "cording": 3170,
      "Brk": 3171,
      "hurts": 3172,
      "yenu": 3173,
      "reaction": 3174,
      "erox": 3175,
      "22": 3176,
      "Around": 3177,
      "Bri": 3178,
      "CC": 3179,
      "Ke": 3180,
      "Ug": 3181,
      "Uk": 3182,
      "cir": 3183,
      "count": 3184,
      "cool": 3185,
      "gain": 3186,
      "mitted": 3187,
      "ride": 3188,
      "vers": 3189,
      "😱😱": 3190,
      "reli": 3191,
      "behind": 3192,
      "mysore": 3193,
      "abit": 3194,
      "above": 3195,
      "lil": 3196,
      "note": 3197,
      "oper": 3198,
      "evry": 3199,
      "agree": 3200,
      "somewhere": 3201,
      "okok": 3202,
      "Didn": 3203,
      "prep": 3204,
      "😈😈😈😈": 3205,
      "Exactly": 3206,
      "learnt": 3207,
      "Everything": 3208,
      "grammar": 3209,
      "listening": 3210,
      "techn": 3211,
      "418ec2100": 3212,
      "mentioned": 3213,
      "29": 3214,
      "2mins": 3215,
      "Lw": 3216,
      "Put": 3217,
      "Ra": 3218,
      "Sear": 3219,
      "TT": 3220,
      "VE": 3221,
      "ahh": 3222,
      "far": 3223,
      "land": 3224,
      "nat": 3225,
      "pc": 3226,
      "sometimes": 3227,
      "uh": 3228,
      "uto": 3229,
      "uch": 3230,
      "wed": 3231,
      "wise": 3232,
      "inde": 3233,
      "road": 3234,
      "issu": 3235,
      "aying": 3236,
      "almost": 3237,
      "names": 3238,
      "area": 3239,
      "experience": 3240,
      "moved": 3241,
      "Hey": 3242,
      "Ohhhhh": 3243,
      "process": 3244,
      "manjunath": 3245,
      "page": 3246,
      "olar": 3247,
      "Remember": 3248,
      "300": 3249,
      "hold": 3250,
      "Bring": 3251,
      "decided": 3252,
      "lsns": 3253,
      "Work": 3254,
      "connected": 3255,
      "discuss": 3256,
      "success": 3257,
      "Bittaku": 3258,
      "Google": 3259,
      "35": 3260,
      "36": 3261,
      "Boll": 3262,
      "Harshini": 3263,
      "Tutiye": 3264,
      "ale": 3265,
      "aut": 3266,
      "grow": 3267,
      "por": 3268,
      "rate": 3269,
      "sched": 3270,
      "✊✊": 3271,
      "ator": 3272,
      "atory": 3273,
      "thes": 3274,
      "Those": 3275,
      "exp": 3276,
      "Hehe": 3277,
      "Waiting": 3278,
      "rather": 3279,
      "Topper": 3280,
      "ava": 3281,
      "blue": 3282,
      "network": 3283,
      "compan": 3284,
      "🤯🤯🤯🤯": 3285,
      "msgs": 3286,
      "interested": 3287,
      "continu": 3288,
      "vehicle": 3289,
      "important": 3290,
      "cancelled": 3291,
      "(\"": 3292,
      "/-": 3293,
      "38": 3294,
      "76": 3295,
      "AR": 3296,
      "Rn": 3297,
      "Res": 3298,
      "TE": 3299,
      "bg": 3300,
      "bur": 3301,
      "equ": 3302,
      "nrw": 3303,
      "pan": 3304,
      "pet": 3305,
      "tab": 3306,
      "whe": 3307,
      "ಗೆ": 3308,
      "atta": 3309,
      "isnt": 3310,
      "vest": 3311,
      "temp": 3312,
      "ently": 3313,
      "sold": 3314,
      "opop": 3315,
      "prolly": 3316,
      "aaa": 3317,
      "brdy": 3318,
      "needs": 3319,
      "teaching": 3320,
      "Having": 3321,
      "support": 3322,
      "downloaded": 3323,
      "Literally": 3324,
      "aagi": 3325,
      "Lowdu": 3326,
      "auto": 3327,
      "inviting": 3328,
      "dark": 3329,
      "pussy": 3330,
      "chodi": 3331,
      "battery": 3332,
      "directly": 3333,
      "chapter": 3334,
      "Topic": 3335,
      "--": 3336,
      "86": 3337,
      "Mr": 3338,
      "Very": 3339,
      "Wal": 3340,
      "Yen": 3341,
      "az": 3342,
      "cast": 3343,
      "ef": 3344,
      "gl": 3345,
      "ier": 3346,
      "lw": 3347,
      "match": 3348,
      "sn": 3349,
      "ses": 3350,
      "xx": 3351,
      "inc": 3352,
      "ially": 3353,
      "alive": 3354,
      "shot": 3355,
      "tting": 3356,
      "10mins": 3357,
      "concept": 3358,
      "manner": 3359,
      "manja": 3360,
      "pretty": 3361,
      "starts": 3362,
      "relative": 3363,
      "dragon": 3364,
      "hands": 3365,
      "account": 3366,
      "searching": 3367,
      "wearing": 3368,
      "strugg": 3369,
      "anjan": 3370,
      "engineering": 3371,
      "langu": 3372,
      "75": 3373,
      "Ans": 3374,
      "MX": 3375,
      "Out": 3376,
      "Try": 3377,
      "aim": 3378,
      "cc": 3379,
      "eg": 3380,
      "fb": 3381,
      "fy": 3382,
      "hy": 3383,
      "ima": 3384,
      "ris": 3385,
      "squ": 3386,
      "vo": 3387,
      "yer": 3388,
      "🌊🌊": 3389,
      "inno": 3390,
      "invest": 3391,
      "rong": 3392,
      "edit": 3393,
      "broke": 3394,
      "members": 3395,
      "org": 3396,
      "idde": 3397,
      "utu": 3398,
      "aly": 3399,
      "tem": 3400,
      "lik": 3401,
      "Wtt": 3402,
      "opt": 3403,
      "dead": 3404,
      "prote": 3405,
      "posit": 3406,
      "rath": 3407,
      "pakka": 3408,
      "Dono": 3409,
      "brand": 3410,
      "Yess": 3411,
      "scen": 3412,
      "appa": 3413,
      "present": 3414,
      "Cant": 3415,
      "tens": 3416,
      "sitting": 3417,
      "ikith": 3418,
      "🔥🔥🔥🔥🔥": 3419,
      "Haven": 3420,
      "revision": 3421,
      "medi": 3422,
      "subjects": 3423,
      "smoke": 3424,
      "register": 3425,
      "expect": 3426,
      "application": 3427,
      "39": 3428,
      "Ad": 3429,
      "Ay": 3430,
      "NO": 3431,
      "OM": 3432,
      "Pu": 3433,
      "Ss": 3434,
      "Won": 3435,
      "aad": 3436,
      "awake": 3437,
      "bun": 3438,
      "fess": 3439,
      "fire": 3440,
      "gt": 3441,
      "ko": 3442,
      "mer": 3443,
      "mou": 3444,
      "nan": 3445,
      "pwd": 3446,
      "size": 3447,
      "tv": 3448,
      "ಕ್": 3449,
      "ins": 3450,
      "income": 3451,
      "educ": 3452,
      "lla": 3453,
      "llll": 3454,
      "stress": 3455,
      "idi": 3456,
      "became": 3457,
      "whr": 3458,
      "lier": 3459,
      "Chup": 3460,
      "boys": 3461,
      "aka": 3462,
      "needed": 3463,
      "price": 3464,
      "due": 3465,
      "build": 3466,
      "ughter": 3467,
      "ulla": 3468,
      "scolding": 3469,
      "Someone": 3470,
      "Clg": 3471,
      "activa": 3472,
      "wifi": 3473,
      "shanmuga": 3474,
      "muslim": 3475,
      "Carry": 3476,
      "Search": 3477,
      "->": 3478,
      "85": 3479,
      "Bk": 3480,
      "Wai": 3481,
      "YY": 3482,
      "cise": 3483,
      "fru": 3484,
      "ges": 3485,
      "ground": 3486,
      "hm": 3487,
      "hit": 3488,
      "jan": 3489,
      "sor": 3490,
      "tur": 3491,
      "relax": 3492,
      "chutiy": 3493,
      "becoming": 3494,
      "ety": 3495,
      "save": 3496,
      "sapp": 3497,
      "icro": 3498,
      "lying": 3499,
      "fort": 3500,
      "lie": 3501,
      "goes": 3502,
      "weat": 3503,
      "worked": 3504,
      "gible": 3505,
      "ational": 3506,
      "Whose": 3507,
      "uled": 3508,
      "intro": 3509,
      "attendance": 3510,
      "daughter": 3511,
      "😢😢😢": 3512,
      "problems": 3513,
      "doub": 3514,
      "commun": 3515,
      "relationship": 3516,
      "calcul": 3517,
      "killed": 3518,
      "💋💋💋💋💋💋💋💋💋💋💋💋💋💋💋💋💋💋💋💋💋💋💋💋💋💋💋💋💋💋💋💋": 3519,
      "drop": 3520,
      "companies": 3521,
      "Mrng": 3522,
      "HR": 3523,
      "MW": 3524,
      "Mm": 3525,
      "Nor": 3526,
      "Te": 3527,
      "_node": 3528,
      "air": 3529,
      "bani": 3530,
      "ctor": 3531,
      "gree": 3532,
      "gav": 3533,
      "ior": 3534,
      "imag": 3535,
      "luck": 3536,
      "pb": 3537,
      "slp": 3538,
      "vious": 3539,
      "win": 3540,
      "waste": 3541,
      "removed": 3542,
      "oring": 3543,
      "heal": 3544,
      "formu": 3545,
      "?????": 3546,
      "loan": 3547,
      "poll": 3548,
      "pho": 3549,
      "perfect": 3550,
      "raju": 3551,
      "paid": 3552,
      "Amd": 3553,
      "Nahhh": 3554,
      "fav": 3555,
      "scream": 3556,
      "scared": 3557,
      "ptr": 3558,
      "new_node": 3559,
      "against": 3560,
      "speaking": 3561,
      "showing": 3562,
      "cap": 3563,
      "looked": 3564,
      "created": 3565,
      "children": 3566,
      "Ummm": 3567,
      "flu": 3568,
      "difference": 3569,
      "private": 3570,
      "emotion": 3571,
      "typing": 3572,
      "detail": 3573,
      "s3x": 3574,
      "rahruth": 3575,
      "virgin": 3576,
      "Listen": 3577,
      "scheduled": 3578,
      ").": 3579,
      "DD": 3580,
      "GM": 3581,
      "Money": 3582,
      "Nin": 3583,
      "Qu": 3584,
      "Sir": 3585,
      "Tr": 3586,
      "Tomorrow": 3587,
      "city": 3588,
      "card": 3589,
      "fir": 3590,
      "gener": 3591,
      "ggest": 3592,
      "lad": 3593,
      "nange": 3594,
      "slow": 3595,
      "tin": 3596,
      "tra": 3597,
      "ಿದ": 3598,
      "🥹🥹": 3599,
      "anny": 3600,
      "tooo": 3601,
      "reve": 3602,
      "ored": 3603,
      "idya": 3604,
      "choice": 3605,
      "adu": 3606,
      "teen": 3607,
      "shoc": 3608,
      "liv": 3609,
      "suggest": 3610,
      "depressed": 3611,
      "necess": 3612,
      "mmmm": 3613,
      "Mysore": 3614,
      "profess": 3615,
      "pod": 3616,
      "ooooo": 3617,
      "About": 3618,
      "anger": 3619,
      "office": 3620,
      "inste": 3621,
      "internet": 3622,
      "ninge": 3623,
      "textbook": 3624,
      "missing": 3625,
      "understanding": 3626,
      "anime": 3627,
      "😭😭😭😭😭😭😭😭": 3628,
      "kidna": 3629,
      "ursday": 3630,
      "🥳🥳🥳🥳🥳🥳🥳🥳": 3631,
      "create": 3632,
      "clothes": 3633,
      "emotions": 3634,
      "FUCKING": 3635,
      "Fucking": 3636,
      "multi": 3637,
      "Passcode": 3638,
      "likith": 3639,
      "formula": 3640,
      "shocked": 3641,
      "Ga": 3642,
      "MA": 3643,
      "Mf": 3644,
      "Nayana": 3645,
      "Other": 3646,
      "SE": 3647,
      "Ser": 3648,
      "Wed": 3649,
      "dick": 3650,
      "jon": 3651,
      "pg": 3652,
      "pk": 3653,
      "rent": 3654,
      "tnrw": 3655,
      "ಲಿ": 3656,
      "್ಯ": 3657,
      "💦?": 3658,
      "stam": 3659,
      "strong": 3660,
      "hes": 3661,
      "chandana": 3662,
      "amma": 3663,
      "Whom": 3664,
      "tele": 3665,
      "dob": 3666,
      "ghanta": 3667,
      "acting": 3668,
      "Wtff": 3669,
      "suff": 3670,
      "tive": 3671,
      "upload": 3672,
      "mov": 3673,
      "worth": 3674,
      "calls": 3675,
      "aga": 3676,
      "Okkk": 3677,
      "raw": 3678,
      "hargav": 3679,
      "afternoon": 3680,
      "Abeee": 3681,
      "prin": 3682,
      "feels": 3683,
      "stories": 3684,
      "train": 3685,
      "eeeee": 3686,
      "Start": 3687,
      "🤔🤔🤔🤔": 3688,
      "harda": 3689,
      "2025": 3690,
      "gaandu": 3691,
      "matters": 3692,
      "solution": 3693,
      "decide": 3694,
      "hurt": 3695,
      "2005": 3696,
      "completely": 3697,
      "messages": 3698,
      "Dele": 3699,
      "Naughtyy": 3700,
      "balls": 3701,
      "​​​​​​​​​​​​​​​​​​​​​​​​​​​​​​​​​​​​​​​​​​​​​​​​​​​​​​​​​​​​​​​​​​​​​​​​​​​​​​​​​​​​​​​​​​​​​​​​​​​​​​​​​​​​​​​​​​​​​​​​​​​​​​​​​​​​​​​​​​​​​​​​​​​​​​​​​​​​​​​​​​​​​​​​​​​​​​​​​​​​​​​​​​​​​​​​​​​​​​​​​​​​​​​​​​​​​​​​​​​​​​​​​​​​​​​​​​​​​​​​​​​​​​​​​​​​​​​​": 3702,
      "finger": 3703,
      "education": 3704,
      "):": 3705,
      "43": 3706,
      "400": 3707,
      "97": 3708,
      "Bu": 3709,
      "DE": 3710,
      "DSA": 3711,
      "Keep": 3712,
      "LC": 3713,
      "Nam": 3714,
      "Par": 3715,
      "Ta": 3716,
      "coun": 3717,
      "fix": 3718,
      "gnsd": 3719,
      "gmail": 3720,
      "hmm": 3721,
      "kot": 3722,
      "lar": 3723,
      "ml": 3724,
      "pee": 3725,
      "sick": 3726,
      "tit": 3727,
      "wall": 3728,
      "ದು": 3729,
      "eral": 3730,
      "ercise": 3731,
      "tory": 3732,
      "topics": 3733,
      "reyas": 3734,
      "choo": 3735,
      "allow": 3736,
      "shith": 3737,
      "enter": 3738,
      "ople": 3739,
      "max": 3740,
      "plans": 3741,
      "loved": 3742,
      "Ohhhhhh": 3743,
      "pec": 3744,
      "fear": 3745,
      "phys": 3746,
      "picking": 3747,
      "Hmmm": 3748,
      "que": 3749,
      "parent": 3750,
      "fake": 3751,
      "pray": 3752,
      "install": 3753,
      "earn": 3754,
      "🥲🥲🥲🥲": 3755,
      "thoughts": 3756,
      "frm": 3757,
      "vids": 3758,
      "Before": 3759,
      "paining": 3760,
      "revising": 3761,
      "resul": 3762,
      "Plzz": 3763,
      "Need": 3764,
      "wards": 3765,
      "locked": 3766,
      "sdike": 3767,
      "scholar": 3768,
      "probably": 3769,
      "women": 3770,
      "birth": 3771,
      "switched": 3772,
      "includ": 3773,
      "decision": 3774,
      "flirting": 3775,
      "Company": 3776,
      "nataka": 3777,
      "petrol": 3778,
      "whether": 3779,
      "tension": 3780,
      "mouth": 3781,
      "reveal": 3782,
      "5mins": 3783,
      "64": 3784,
      "AC": 3785,
      "Bt": 3786,
      "Co": 3787,
      "Cs": 3788,
      "DO": 3789,
      "Dis": 3790,
      "Gr": 3791,
      "Look": 3792,
      "Likith": 3793,
      "Make": 3794,
      "Name": 3795,
      "Pre": 3796,
      "SO": 3797,
      "Ty": 3798,
      "Ym": 3799,
      "flow": 3800,
      "han": 3801,
      "lam": 3802,
      "mall": 3803,
      "pack": 3804,
      "swee": 3805,
      "vol": 3806,
      "yt": 3807,
      "🔥💥": 3808,
      "ror": 3809,
      "anc": 3810,
      "anya": 3811,
      "hai": 3812,
      "hap": 3813,
      "mele": 3814,
      "ppp": 3815,
      "yaa": 3816,
      "Thursday": 3817,
      "ify": 3818,
      "deal": 3819,
      "complain": 3820,
      "us04": 3821,
      "expen": 3822,
      "exactly": 3823,
      "sss": 3824,
      "logy": 3825,
      "produc": 3826,
      "whatsapp": 3827,
      "spot": 3828,
      "insta": 3829,
      "stopped": 3830,
      "!!!!!!!!": 3831,
      "Experience": 3832,
      "skill": 3833,
      "🥺🥺🥺": 3834,
      "payment": 3835,
      "weeks": 3836,
      "perien": 3837,
      "🤯🤯🤯": 3838,
      "Something": 3839,
      "ometry": 3840,
      "midnight": 3841,
      "Opppppp": 3842,
      "cuments": 3843,
      "Oyee": 3844,
      "pending": 3845,
      "market": 3846,
      "silent": 3847,
      "doubts": 3848,
      "movies": 3849,
      "us04web": 3850,
      "05": 3851,
      "95": 3852,
      "Att": 3853,
      "C1": 3854,
      "Dk": 3855,
      "Down": 3856,
      "DCET": 3857,
      "Fast": 3858,
      "IE": 3859,
      "NS": 3860,
      "PA": 3861,
      "PU": 3862,
      "Sing": 3863,
      "Sent": 3864,
      "Ve": 3865,
      "Wo": 3866,
      "ban": 3867,
      "boo": 3868,
      "coo": 3869,
      "fasi": 3870,
      "hin": 3871,
      "hence": 3872,
      "lv": 3873,
      "lines": 3874,
      "mur": 3875,
      "p0": 3876,
      "poo": 3877,
      "ras": 3878,
      "var": 3879,
      "yrs": 3880,
      "👏👏": 3881,
      "roast": 3882,
      "aning": 3883,
      "omach": 3884,
      "ref": 3885,
      "remove": 3886,
      "sty": 3887,
      "step": 3888,
      "theore": 3889,
      "idu": 3890,
      "arm": 3891,
      "shif": 3892,
      "urself": 3893,
      "acter": 3894,
      "mach": 3895,
      "ribut": 3896,
      "😂😂😂😂😂": 3897,
      "plo": 3898,
      "proof": 3899,
      "program": 3900,
      "poem": 3901,
      "raj": 3902,
      "oooooooo": 3903,
      "everyday": 3904,
      "wouldn": 3905,
      "seriously": 3906,
      "2024": 3907,
      "joined": 3908,
      "Prolly": 3909,
      "hpy": 3910,
      "beda": 3911,
      "born": 3912,
      "ukra": 3913,
      "Social": 3914,
      "horny": 3915,
      "uniform": 3916,
      "loude": 3917,
      "statement": 3918,
      "ayanth": 3919,
      "options": 3920,
      "chutiyas": 3921,
      "imagine": 3922,
      "photo": 3923,
      "pkart": 3924,
      "48": 3925,
      "Bet": 3926,
      "Bus": 3927,
      "Gu": 3928,
      "Has": 3929,
      "Hindi": 3930,
      "Jon": 3931,
      "NSS": 3932,
      "Oom": 3933,
      "PB": 3934,
      "Room": 3935,
      "Tal": 3936,
      "W1": 3937,
      "Wau": 3938,
      "aw": 3939,
      "awhile": 3940,
      "bj": 3941,
      "bak": 3942,
      "cat": 3943,
      "cli": 3944,
      "dee": 3945,
      "ged": 3946,
      "hung": 3947,
      "io": 3948,
      "jn": 3949,
      "kon": 3950,
      "nope": 3951,
      "nesday": 3952,
      "sg": 3953,
      "san": 3954,
      "simple": 3955,
      "wet": 3956,
      "xerox": 3957,
      "yq": 3958,
      "yr": 3959,
      "್ರ": 3960,
      "thar": 3961,
      "thay": 3962,
      "ross": 3963,
      "oned": 3964,
      "atb": 3965,
      "atleast": 3966,
      "recomm": 3967,
      "arrive": 3968,
      "oot": 3969,
      "andre": 3970,
      "alore": 3971,
      "keerthana": 3972,
      "sell": 3973,
      "Thn": 3974,
      "entist": 3975,
      "ending": 3976,
      "gov": 3977,
      "iring": 3978,
      "tells": 3979,
      "compar": 3980,
      "cel": 3981,
      "neat": 3982,
      "india": 3983,
      "10k": 3984,
      "Notes": 3985,
      "finally": 3986,
      "park": 3987,
      "clgs": 3988,
      "Remind": 3989,
      "doesnt": 3990,
      "chee": 3991,
      "putting": 3992,
      "earlier": 3993,
      "monday": 3994,
      "15mins": 3995,
      "granny": 3996,
      "subs": 3997,
      "blood": 3998,
      "Stu": 3999,
      "jail": 4000,
      "bsd": 4001,
      "ODE": 4002,
      "remembered": 4003,
      "solved": 4004,
      "caught": 4005,
      "scolded": 4006,
      "hurry": 4007,
      "Coming": 4008,
      "crct": 4009,
      "videos": 4010,
      "childhood": 4011,
      "Bois": 4012,
      "Lolll": 4013,
      "travelling": 4014,
      "😘😘😘😘": 4015,
      "printf": 4016,
      "special": 4017,
      "Role": 4018,
      "AIML": 4019,
      "location": 4020,
      "Poor": 4021,
      "cmpl": 4022,
      "Enjoy": 4023,
      "Tuesday": 4024,
      "Blue": 4025,
      "drunk": 4026,
      "Bhosdike": 4027,
      "laptop": 4028,
      "Friday": 4029,
      "relatives": 4030,
      "language": 4031,
      "scenes": 4032,
      "Wednesday": 4033,
      "stamina": 4034,
      "results": 4035,
      "73": 4036,
      "BC": 4037,
      "Bang": 4038,
      "Etc": 4039,
      "JC": 4040,
      "Loc": 4041,
      "MH": 4042,
      "NG": 4043,
      "NT": 4044,
      "OW": 4045,
      "Pb": 4046,
      "Teach": 4047,
      "VER": 4048,
      "Yq": 4049,
      "YOU": 4050,
      "apo": 4051,
      "cri": 4052,
      "chall": 4053,
      "ging": 4054,
      "game": 4055,
      "hus": 4056,
      "iy": 4057,
      "kn": 4058,
      "ohh": 4059,
      "ran": 4060,
      "ze": 4061,
      "z09": 4062,
      "ನ್": 4063,
      "ಲ್": 4064,
      "itude": 4065,
      "stomach": 4066,
      "theory": 4067,
      "ord": 4068,
      "cho": 4069,
      "amaz": 4070,
      "pping": 4071,
      "tel": 4072,
      "saved": 4073,
      "saala": 4074,
      "ices": 4075,
      "shiv": 4076,
      "documents": 4077,
      "acy": 4078,
      "taught": 4079,
      "Wtffff": 4080,
      "ife": 4081,
      "susu": 4082,
      "summ": 4083,
      "male": 4084,
      "Check": 4085,
      "peak": 4086,
      "propo": 4087,
      "phones": 4088,
      "Abhi": 4089,
      "Seeing": 4090,
      "store": 4091,
      "serv": 4092,
      "partic": 4093,
      "harder": 4094,
      "following": 4095,
      "career": 4096,
      "satis": 4097,
      "Bruhhh": 4098,
      "calm": 4099,
      "obviously": 4100,
      "baby": 4101,
      "Contin": 4102,
      "Oyeee": 4103,
      "strated": 4104,
      "points": 4105,
      "ninu": 4106,
      "HAVE": 4107,
      "motivation": 4108,
      "bullshit": 4109,
      "Happy": 4110,
      "regret": 4111,
      "prepare": 4112,
      "Bkl": 4113,
      "Waiy": 4114,
      "details": 4115,
      "++": 4116,
      "3k": 4117,
      "6k": 4118,
      "7th": 4119,
      "88": 4120,
      "Auto": 4121,
      "Big": 4122,
      "Back": 4123,
      "Batch": 4124,
      "Daniya": 4125,
      "Full": 4126,
      "Gir": 4127,
      "IC": 4128,
      "Sometimes": 4129,
      "Use": 4130,
      "W2": 4131,
      "W5": 4132,
      "Want": 4133,
      "Zain": 4134,
      "cup": 4135,
      "cash": 4136,
      "dates": 4137,
      "drive": 4138,
      "hope": 4139,
      "iro": 4140,
      "iety": 4141,
      "mas": 4142,
      "pin": 4143,
      "prom": 4144,
      "pati": 4145,
      "rid": 4146,
      "sof": 4147,
      "sour": 4148,
      "ರ್": 4149,
      "atre": 4150,
      "remain": 4151,
      "hal": 4152,
      "station": 4153,
      "lease": 4154,
      "lected": 4155,
      "letting": 4156,
      "idence": 4157,
      "selected": 4158,
      "wasnt": 4159,
      "acted": 4160,
      "common": 4161,
      "worse": 4162,
      "??!!": 4163,
      "plac": 4164,
      "igital": 4165,
      "ateg": 4166,
      "proud": 4167,
      "fest": 4168,
      "permission": 4169,
      "boom": 4170,
      "rak": 4171,
      "whose": 4172,
      "offline": 4173,
      "dio": 4174,
      "texted": 4175,
      "attitude": 4176,
      "useful": 4177,
      "🔥🔥🔥🔥🔥🔥🔥🔥": 4178,
      "ivers": 4179,
      "intout": 4180,
      "character": 4181,
      "higher": 4182,
      "AND": 4183,
      "ixh": 4184,
      "struction": 4185,
      "Plz": 4186,
      "trig": 4187,
      "camera": 4188,
      "Saw": 4189,
      "connect": 4190,
      "seats": 4191,
      "qqqqqqqq": 4192,
      "bharath": 4193,
      "array": 4194,
      "school": 4195,
      "Studying": 4196,
      "hostel": 4197,
      "circle": 4198,
      "innocent": 4199,
      "2N": 4200,
      "2days": 4201,
      "33": 4202,
      "AY": 4203,
      "Ash": 4204,
      "Again": 4205,
      "Bf": 4206,
      "CS": 4207,
      "ES": 4208,
      "Ep": 4209,
      "Ev": 4210,
      "Eli": 4211,
      "Lab": 4212,
      "May": 4213,
      "NCC": 4214,
      "Rev": 4215,
      "Sit": 4216,
      "Show": 4217,
      "WI": 4218,
      "Wi": 4219,
      "Wah": 4220,
      "aven": 4221,
      "bh": 4222,
      "bin": 4223,
      "crit": 4224,
      "daniya": 4225,
      "draw": 4226,
      "fell": 4227,
      "gend": 4228,
      "ker": 4229,
      "lone": 4230,
      "num": 4231,
      "oil": 4232,
      "sin": 4233,
      "sooo": 4234,
      "sweat": 4235,
      "tee": 4236,
      "tone": 4237,
      "vu": 4238,
      "wr": 4239,
      "intell": 4240,
      "enc": 4241,
      "ense": 4242,
      "ising": 4243,
      "tors": 4244,
      "research": 4245,
      "ster": 4246,
      "ased": 4247,
      "asure": 4248,
      "arya": 4249,
      "ality": 4250,
      "ade": 4251,
      "adru": 4252,
      "lytechn": 4253,
      "forms": 4254,
      "doctor": 4255,
      "living": 4256,
      "naked": 4257,
      "nagu": 4258,
      "sund": 4259,
      "sudd": 4260,
      "def": 4261,
      "dep": 4262,
      "degree": 4263,
      "til": 4264,
      "nod": 4265,
      "known": 4266,
      "people": 4267,
      "coding": 4268,
      "happiness": 4269,
      "yours": 4270,
      "past": 4271,
      "verage": 4272,
      "Reg": 4273,
      "pres": 4274,
      "printout": 4275,
      "ular": 4276,
      "chec": 4277,
      "...........": 4278,
      "texting": 4279,
      "goddd": 4280,
      "Without": 4281,
      "links": 4282,
      "control": 4283,
      "Always": 4284,
      "handle": 4285,
      "compet": 4286,
      "bsite": 4287,
      "Brp": 4288,
      "eating": 4289,
      "chatting": 4290,
      "oppp": 4291,
      "beginning": 4292,
      "chilling": 4293,
      "courses": 4294,
      "electronics": 4295,
      "Cheeeeeeee": 4296,
      "New": 4297,
      "Said": 4298,
      "covered": 4299,
      "Fucked": 4300,
      "shoes": 4301,
      "sunny": 4302,
      "respons": 4303,
      "weren": 4304,
      "diagram": 4305,
      "excited": 4306,
      "index": 4307,
      "health": 4308,
      "professor": 4309,
      "instead": 4310,
      "choose": 4311,
      "bakchodi": 4312,
      "hungry": 4313,
      "cmplt": 4314,
      "husband": 4315,
      "lytechnic": 4316,
      "sudden": 4317,
      "')": 4318,
      "47": 4319,
      "51": 4320,
      "79": 4321,
      "9th": 4322,
      "AA": 4323,
      "ALL": 4324,
      "Bindu": 4325,
      "Cha": 4326,
      "Cum": 4327,
      "Dep": 4328,
      "Fam": 4329,
      "Fasi": 4330,
      "HE": 4331,
      "IF": 4332,
      "Jc": 4333,
      "Less": 4334,
      "Mp": 4335,
      "NN": 4336,
      "NQ": 4337,
      "NODE": 4338,
      "RR": 4339,
      "TA": 4340,
      "W4": 4341,
      "bill": 4342,
      "bindu": 4343,
      "cg": 4344,
      "cas": 4345,
      "cou": 4346,
      "cig": 4347,
      "dl": 4348,
      "gan": 4349,
      "ht": 4350,
      "hat": 4351,
      "kod": 4352,
      "mir": 4353,
      "mera": 4354,
      "mix": 4355,
      "sl": 4356,
      "sou": 4357,
      "scan": 4358,
      "sig": 4359,
      "wa": 4360,
      "wast": 4361,
      "zen": 4362,
      "ಗಳ": 4363,
      "😃😃": 4364,
      "😎😎": 4365,
      "🙄🙄": 4366,
      "inser": 4367,
      "infront": 4368,
      "thon": 4369,
      "thinf": 4370,
      "reco": 4371,
      "request": 4372,
      "memor": 4373,
      "heist": 4374,
      "iar": 4375,
      "army": 4376,
      "eet": 4377,
      "below": 4378,
      "adult": 4379,
      "forward": 4380,
      "Wtfff": 4381,
      "maf": 4382,
      "maja": 4383,
      "death": 4384,
      "exact": 4385,
      "imum": 4386,
      "immedi": 4387,
      "Help": 4388,
      "neak": 4389,
      "ssss": 4390,
      "assign": 4391,
      "Whyy": 4392,
      "provid": 4393,
      "shouldnt": 4394,
      "pair": 4395,
      "twice": 4396,
      "brp": 4397,
      "ield": 4398,
      "sentence": 4399,
      "verse": 4400,
      "pty": 4401,
      "space": 4402,
      "stock": 4403,
      "hog": 4404,
      "grab": 4405,
      "interview": 4406,
      "!!!!!!": 4407,
      "kkk": 4408,
      "nerd": 4409,
      "ength": 4410,
      "showed": 4411,
      "linked": 4412,
      "antic": 4413,
      "sadness": 4414,
      "drinking": 4415,
      "ivil": 4416,
      "secret": 4417,
      "reality": 4418,
      "confident": 4419,
      "feelings": 4420,
      "buying": 4421,
      "Noobde": 4422,
      "kidding": 4423,
      "played": 4424,
      "SSLC": 4425,
      "collect": 4426,
      "committed": 4427,
      "💦💦💦💦💦💦💦💦": 4428,
      "Broooooo": 4429,
      "rict": 4430,
      "struct": 4431,
      "funny": 4432,
      "Watching": 4433,
      "Naughtyyy": 4434,
      "English": 4435,
      "confirmed": 4436,
      "Such": 4437,
      "lakhs": 4438,
      "lawyer": 4439,
      "ships": 4440,
      "electricity": 4441,
      "fux": 4442,
      "require": 4443,
      "temple": 4444,
      "sorry": 4445,
      "communication": 4446,
      "necessary": 4447,
      "Buy": 4448,
      "Location": 4449,
      "96": 4450,
      "CO": 4451,
      "Char": 4452,
      "Elect": 4453,
      "FR": 4454,
      "Fro": 4455,
      "Gbsd": 4456,
      "Kind": 4457,
      "LY": 4458,
      "More": 4459,
      "PS": 4460,
      "Pe": 4461,
      "Per": 4462,
      "Pers": 4463,
      "Part": 4464,
      "UT": 4465,
      "Went": 4466,
      "Yell": 4467,
      "aj": 4468,
      "bto": 4469,
      "categ": 4470,
      "dance": 4471,
      "deep": 4472,
      "fan": 4473,
      "fil": 4474,
      "field": 4475,
      "gion": 4476,
      "hd": 4477,
      "kond": 4478,
      "kulla": 4479,
      "mt": 4480,
      "mme": 4481,
      "pot": 4482,
      "ration": 4483,
      "sb": 4484,
      "sanjan": 4485,
      "ug": 4486,
      "vv": 4487,
      "wala": 4488,
      "ಾಗ": 4489,
      "🔥💦": 4490,
      "enge": 4491,
      "total": 4492,
      "touch": 4493,
      "haak": 4494,
      "stit": 4495,
      "heaven": 4496,
      "idini": 4497,
      "ali": 4498,
      "admitted": 4499,
      "select": 4500,
      "section": 4501,
      "ict": 4502,
      "Think": 4503,
      "entry": 4504,
      "lila": 4505,
      "likes": 4506,
      "website": 4507,
      "clar": 4508,
      "maa": 4509,
      "tila": 4510,
      "cele": 4511,
      "experien": 4512,
      "mock": 4513,
      "Chat": 4514,
      "pol": 4515,
      "yourself": 4516,
      "manag": 4517,
      "thinks": 4518,
      "papa": 4519,
      "*****": 4520,
      "vert": 4521,
      "applied": 4522,
      "previous": 4523,
      "offer": 4524,
      "chest": 4525,
      "goobesoory": 4526,
      "hole": 4527,
      "Once": 4528,
      "skills": 4529,
      "🔥🔥🔥🔥🔥🔥": 4530,
      "partner": 4531,
      "smile": 4532,
      "smthg": 4533,
      "attending": 4534,
      "🤭🤭🤭": 4535,
      "access": 4536,
      "downloading": 4537,
      "mcq": 4538,
      "Anything": 4539,
      "headache": 4540,
      "Chutiyap": 4541,
      "chats": 4542,
      "iiii": 4543,
      "freed": 4544,
      "Huhh": 4545,
      "senior": 4546,
      "Getting": 4547,
      "karnataka": 4548,
      "Seen": 4549,
      "practice": 4550,
      "bruhh": 4551,
      "rainy": 4552,
      "failed": 4553,
      "probability": 4554,
      "preparatory": 4555,
      "considered": 4556,
      "tablets": 4557,
      "autoliv": 4558,
      "struggle": 4559,
      "imagin": 4560,
      "multiple": 4561,
      "್ಯಾ": 4562,
      "telegram": 4563,
      "machine": 4564,
      "recogn": 4565,
      "immediately": 4566,
      "neakers": 4567,
      "\");": 4568,
      "46": 4569,
      "55": 4570,
      "8k": 4571,
      "AB": 4572,
      "Bsd": 4573,
      "Cz": 4574,
      "Fa": 4575,
      "Ff": 4576,
      "Fi": 4577,
      "GE": 4578,
      "Gan": 4579,
      "Har": 4580,
      "Lunch": 4581,
      "Mom": 4582,
      "OF": 4583,
      "Ppl": 4584,
      "RO": 4585,
      "Red": 4586,
      "Tc": 4587,
      "Tim": 4588,
      "W3": 4589,
      "Wsit": 4590,
      "YE": 4591,
      "YT": 4592,
      "bd": 4593,
      "cya": 4594,
      "ege": 4595,
      "ect": 4596,
      "hn": 4597,
      "jt": 4598,
      "jari": 4599,
      "kir": 4600,
      "mk": 4601,
      "mate": 4602,
      "pi": 4603,
      "ped": 4604,
      "pted": 4605,
      "pms": 4606,
      "pant": 4607,
      "rat": 4608,
      "rish": 4609,
      "rice": 4610,
      "tk": 4611,
      "vr": 4612,
      "ತಿ": 4613,
      "ಪ್ರ": 4614,
      "😂🔥": 4615,
      "🥺❤": 4616,
      "anical": 4617,
      "onal": 4618,
      "refer": 4619,
      "std": 4620,
      "broooo": 4621,
      "ors": 4622,
      "ves": 4623,
      "anda": 4624,
      "andom": 4625,
      "beaut": 4626,
      "amy": 4627,
      "admission": 4628,
      "kept": 4629,
      "safe": 4630,
      "according": 4631,
      "tail": 4632,
      "weak": 4633,
      "express": 4634,
      "logi": 4635,
      "outfit": 4636,
      "unit": 4637,
      "unfollow": 4638,
      "1000": 4639,
      "whats": 4640,
      "paste": 4641,
      "ieve": 4642,
      "guu": 4643,
      "actual": 4644,
      "ists": 4645,
      "Whole": 4646,
      "spread": 4647,
      "intense": 4648,
      "moment": 4649,
      "offic": 4650,
      "died": 4651,
      "Online": 4652,
      "avr": 4653,
      "blank": 4654,
      "missed": 4655,
      "gged": 4656,
      "2026": 4657,
      "forgotten": 4658,
      "daily": 4659,
      "gress": 4660,
      "ANY": 4661,
      "Meet": 4662,
      "Huh": 4663,
      "opening": 4664,
      "conduc": 4665,
      "clearly": 4666,
      "dreams": 4667,
      "function": 4668,
      "interesting": 4669,
      "ONE": 4670,
      "Yuppp": 4671,
      "Naughtyyyy": 4672,
      "copied": 4673,
      "examples": 4674,
      "418ec223": 4675,
      "holidays": 4676,
      "gift": 4677,
      "screenshot": 4678,
      "purpose": 4679,
      "Loudu": 4680,
      "python": 4681,
      "princi": 4682,
      "scholarship": 4683,
      "sweet": 4684,
      "Download": 4685,
      "p0rn": 4686,
      "sunday": 4687,
      "mafia": 4688,
      "Personal": 4689,
      "freedom": 4690,
      "\",": 4691,
      "3days": 4692,
      "4k": 4693,
      "77": 4694,
      "?!!": 4695,
      "AF": 4696,
      "Bur": 4697,
      "Bath": 4698,
      "Coll": 4699,
      "Dinner": 4700,
      "Deve": 4701,
      "Ear": 4702,
      "GH": 4703,
      "Great": 4704,
      "MY": 4705,
      "Mus": 4706,
      "Nan": 4707,
      "San": 4708,
      "Tot": 4709,
      "US": 4710,
      "W6": 4711,
      "ben": 4712,
      "bour": 4713,
      "civil": 4714,
      "eth": 4715,
      "ele": 4716,
      "eye": 4717,
      "ian": 4718,
      "ili": 4719,
      "js": 4720,
      "jack": 4721,
      "ming": 4722,
      "nthg": 4723,
      "snow": 4724,
      "sim": 4725,
      "sive": 4726,
      "sharda": 4727,
      "wini": 4728,
      "zy": 4729,
      "😂🤦": 4730,
      "incre": 4731,
      "ened": 4732,
      "ism": 4733,
      "ises": 4734,
      "reject": 4735,
      "stuck": 4736,
      "Browwww": 4737,
      "orig": 4738,
      "held": 4739,
      "aya": 4740,
      "andhi": 4741,
      "beo": 4742,
      "ambani": 4743,
      "saving": 4744,
      "shukra": 4745,
      "lib": 4746,
      "ustom": 4747,
      "super": 4748,
      "math": 4749,
      "devel": 4750,
      "comput": 4751,
      "comment": 4752,
      "exper": 4753,
      "Whatt": 4754,
      "afffff": 4755,
      "lover": 4756,
      "profile": 4757,
      "percent": 4758,
      "himself": 4759,
      "tware": 4760,
      "final": 4761,
      "background": 4762,
      "🤣🤣🤣🤣🤣🤣🤣": 4763,
      "Forgot": 4764,
      "apps": 4765,
      "cheat": 4766,
      "mentally": 4767,
      "ears": 4768,
      "............": 4769,
      "gr8": 4770,
      "Yaaaaa": 4771,
      "Explain": 4772,
      "ump": 4773,
      "skin": 4774,
      "hhhhhh": 4775,
      "useless": 4776,
      "Star": 4777,
      "realise": 4778,
      "Alot": 4779,
      "joining": 4780,
      "remembering": 4781,
      "postp": 4782,
      "lsn": 4783,
      "certain": 4784,
      "Lowda": 4785,
      "ification": 4786,
      "jio": 4787,
      "Movie": 4788,
      "rolling": 4789,
      "haircut": 4790,
      "hours": 4791,
      "Phone": 4792,
      "muslims": 4793,
      "lockdown": 4794,
      "switch": 4795,
      "Shab": 4796,
      "quickly": 4797,
      "activity": 4798,
      "tqtqtqtqtqtqtqtq": 4799,
      "required": 4800,
      "issue": 4801,
      "porn": 4802,
      "bunk": 4803,
      "frustrated": 4804,
      "lucky": 4805,
      "podcast": 4806,
      "expensive": 4807,
      "ploy": 4808,
      "Better": 4809,
      "neatly": 4810,
      "lonely": 4811,
      "intellig": 4812,
      "linkedin": 4813,
      "celebr": 4814,
      "police": 4815,
      "Devel": 4816,
      "origin": 4817,
      "('": 4818,
      "1hr": 4819,
      "42": 4820,
      "8th": 4821,
      "Aye": 4822,
      "Book": 4823,
      "ED": 4824,
      "EVER": 4825,
      "Micro": 4826,
      "Net": 4827,
      "Nange": 4828,
      "OH": 4829,
      "PM": 4830,
      "Page": 4831,
      "Tired": 4832,
      "Ua": 4833,
      "Wth": 4834,
      "Were": 4835,
      "_id": 4836,
      "abe": 4837,
      "average": 4838,
      "batch": 4839,
      "burn": 4840,
      "dri": 4841,
      "gent": 4842,
      "ky": 4843,
      "lin": 4844,
      "lpa": 4845,
      "noo": 4846,
      "nal": 4847,
      "port": 4848,
      "tar": 4849,
      "treat": 4850,
      "usu": 4851,
      "wit": 4852,
      "ym": 4853,
      "yar": 4854,
      "👍👍": 4855,
      "🤣🔥": 4856,
      "influ": 4857,
      "root": 4858,
      "rone": 4859,
      "rew": 4860,
      "reci": 4861,
      "hay": 4862,
      "staff": 4863,
      "theatre": 4864,
      "hest": 4865,
      "illy": 4866,
      "leet": 4867,
      "asad": 4868,
      "chup": 4869,
      "team": 4870,
      "door": 4871,
      "urther": 4872,
      "abhi": 4873,
      "endar": 4874,
      "ird": 4875,
      "cancel": 4876,
      "Oho": 4877,
      "eved": 4878,
      "iful": 4879,
      "suits": 4880,
      "closed": 4881,
      "maps": 4882,
      "Chem": 4883,
      "Whatever": 4884,
      "knowing": 4885,
      "epis": 4886,
      "consu": 4887,
      "polytechnic": 4888,
      "aapa": 4889,
      "iler": 4890,
      "atering": 4891,
      "rage": 4892,
      "whatever": 4893,
      "Whenever": 4894,
      "ption": 4895,
      "ntg": 4896,
      "spent": 4897,
      "Isn": 4898,
      "Atleast": 4899,
      "empty": 4900,
      "Beo": 4901,
      "cutting": 4902,
      "chuk": 4903,
      "karo": 4904,
      "explained": 4905,
      "cause": 4906,
      "ized": 4907,
      "posted": 4908,
      "revised": 4909,
      "Litreally": 4910,
      "resume": 4911,
      "active": 4912,
      "Huhhh": 4913,
      "distr": 4914,
      "opened": 4915,
      "BROOOO": 4916,
      "Anime": 4917,
      "Oyeeee": 4918,
      "fighting": 4919,
      "report": 4920,
      "hotspot": 4921,
      "music": 4922,
      "FFFFFFFF": 4923,
      "GGGG": 4924,
      "Phn": 4925,
      "ALOT": 4926,
      "figure": 4927,
      "religion": 4928,
      "position": 4929,
      "stressed": 4930,
      "screaming": 4931,
      "Delete": 4932,
      "including": 4933,
      "Single": 4934,
      "ribute": 4935,
      "compared": 4936,
      "ನ್ನ": 4937,
      "Eligible": 4938,
      "WiFi": 4939,
      "teeth": 4940,
      "suddenly": 4941,
      "experim": 4942,
      "leetcode": 4943,
      "()": 4944,
      "31": 4945,
      "32": 4946,
      "89": 4947,
      "BT": 4948,
      "Cy": 4949,
      "DI": 4950,
      "Dam": 4951,
      "FA": 4952,
      "Hi": 4953,
      "King": 4954,
      "LD": 4955,
      "Lma": 4956,
      "NU": 4957,
      "Ning": 4958,
      "Night": 4959,
      "Never": 4960,
      "Pa": 4961,
      "RA": 4962,
      "S4": 4963,
      "Sam": 4964,
      "Tri": 4965,
      "Thar": 4966,
      "Vgm": 4967,
      "Y2": 4968,
      "bb": 4969,
      "base": 4970,
      "c4": 4971,
      "cra": 4972,
      "cook": 4973,
      "dcet": 4974,
      "gee": 4975,
      "gall": 4976,
      "jh": 4977,
      "kash": 4978,
      "lc": 4979,
      "none": 4980,
      "nooo": 4981,
      "nalli": 4982,
      "oct": 4983,
      "prahruth": 4984,
      "s4": 4985,
      "ua": 4986,
      "wi": 4987,
      "wil": 4988,
      "ರಿ": 4989,
      "ವಿದ": 4990,
      "init": 4991,
      "tho": 4992,
      "thank": 4993,
      "eric": 4994,
      "ont": 4995,
      "ats": 4996,
      "reed": 4997,
      "reet": 4998,
      "hara": 4999,
      "stem": 5000,
      "strict": 5001,
      "hero": 5002,
      "chutu": 5003,
      "betr": 5004,
      "behav": 5005,
      "amt": 5006,
      "Whixh": 5007,
      "esto": 5008,
      "tea": 5009,
      "kel": 5010,
      "ford": 5011,
      "force": 5012,
      "shut": 5013,
      "shreyas": 5014,
      "ured": 5015,
      "abuse": 5016,
      "nap": 5017,
      "events": 5018,
      "map": 5019,
      "maadi": 5020,
      "comfor": 5021,
      "ceed": 5022,
      "imal": 5023,
      "worst": 5024,
      "neg": 5025,
      "neck": 5026,
      "Whattttt": 5027,
      "affect": 5028,
      "romantic": 5029,
      "mmm": 5030,
      "ffs": 5031,
      "iled": 5032,
      "ideas": 5033,
      "boll": 5034,
      "whenever": 5035,
      "mination": 5036,
      "mary": 5037,
      "20mins": 5038,
      "oooooo": 5039,
      "scam": 5040,
      "rama": 5041,
      "Abeeee": 5042,
      "Rel": 5043,
      "young": 5044,
      "talks": 5045,
      "aster": 5046,
      "Mean": 5047,
      "mental": 5048,
      "madarchod": 5049,
      "helu": 5050,
      "Exercise": 5051,
      "Stay": 5052,
      "english": 5053,
      "easier": 5054,
      "overthinking": 5055,
      "paying": 5056,
      "EEE": 5057,
      "pubg": 5058,
      "THAT": 5059,
      "chay": 5060,
      "Little": 5061,
      "stead": 5062,
      "maadu": 5063,
      "added": 5064,
      "grandpa": 5065,
      "vibe": 5066,
      "salt": 5067,
      "keyboard": 5068,
      "Engine": 5069,
      "😍😍😍": 5070,
      "mechanical": 5071,
      "HHHHHHHH": 5072,
      "Avr": 5073,
      "Science": 5074,
      "Turu": 5075,
      "Black": 5076,
      "fingers": 5077,
      "motivated": 5078,
      "🤮🤮🤮🤮": 5079,
      "hanged": 5080,
      "advice": 5081,
      "master": 5082,
      "Akash": 5083,
      "version": 5084,
      "Lwde": 5085,
      "Lwdu": 5086,
      "issues": 5087,
      "lwde": 5088,
      "Normal": 5089,
      "emotional": 5090,
      "slowly": 5091,
      "kidnapped": 5092,
      "physics": 5093,
      "ancial": 5094,
      "shift": 5095,
      "sansa": 5096,
      "tharki": 5097,
      "Bangalore": 5098,
      "apologi": 5099,
      "Continue": 5100,
      "depends": 5101,
      "soul": 5102,
      "hnny": 5103,
      "beautiful": 5104,
      "Musli": 5105,
      "develop": 5106,
      "BTW": 5107,
      "gallery": 5108,
      "ವಿದ್ಯಾ": 5109,
      "01": 5110,
      "250": 5111,
      "3d": 5112,
      "57": 5113,
      "600": 5114,
      "94": 5115,
      "AD": 5116,
      "BB": 5117,
      "Bha": 5118,
      "BMS": 5119,
      "C0": 5120,
      "C2": 5121,
      "Cya": 5122,
      "C26": 5123,
      "Di": 5124,
      "Ed": 5125,
      "ECE": 5126,
      "Fe": 5127,
      "Fli": 5128,
      "Hod": 5129,
      "MM": 5130,
      "Men": 5131,
      "Mera": 5132,
      "ND": 5133,
      "Old": 5134,
      "Off": 5135,
      "Over": 5136,
      "PT": 5137,
      "Pus": 5138,
      "Rep": 5139,
      "SJ": 5140,
      "SU": 5141,
      "Sur": 5142,
      "SNQ": 5143,
      "TS": 5144,
      "Tooo": 5145,
      "Tel": 5146,
      "Uh": 5147,
      "W0": 5148,
      "Yo": 5149,
      "ahead": 5150,
      "cil": 5151,
      "custom": 5152,
      "fied": 5153,
      "hed": 5154,
      "hone": 5155,
      "hills": 5156,
      "jd": 5157,
      "jay": 5158,
      "jud": 5159,
      "jayanth": 5160,
      "mand": 5161,
      "mater": 5162,
      "oid": 5163,
      "pid": 5164,
      "pie": 5165,
      "tan": 5166,
      "wamy": 5167,
      "ಕೆ": 5168,
      "ಥಿ": 5169,
      "ುವ": 5170,
      "್ತ": 5171,
      "✊💦": 5172,
      "👊*": 5173,
      "thur": 5174,
      "rona": 5175,
      "lll": 5176,
      "hack": 5177,
      "stra": 5178,
      "Browww": 5179,
      "bros": 5180,
      "broken": 5181,
      "height": 5182,
      "ows": 5183,
      "arth": 5184,
      "amount": 5185,
      "adjust": 5186,
      "ppers": 5187,
      "tear": 5188,
      "sel": 5189,
      "separ": 5190,
      "ici": 5191,
      "iced": 5192,
      "icide": 5193,
      "icles": 5194,
      "yav": 5195,
      "yell": 5196,
      "ligh": 5197,
      "acce": 5198,
      "gold": 5199,
      "naa": 5200,
      "wel": 5201,
      "terror": 5202,
      "suit": 5203,
      "ties": 5204,
      "exec": 5205,
      "Cheer": 5206,
      "neigh": 5207,
      "??!!!": 5208,
      "Sol": 5209,
      "afff": 5210,
      "Chandana": 5211,
      "Instead": 5212,
      "construction": 5213,
      "provide": 5214,
      "progress": 5215,
      "ilar": 5216,
      "bois": 5217,
      "Note": 5218,
      "quot": 5219,
      "istration": 5220,
      "scope": 5221,
      "scored": 5222,
      "Rest": 5223,
      "appo": 5224,
      "spell": 5225,
      "finishing": 5226,
      "icken": 5227,
      "clean": 5228,
      "dumb": 5229,
      "personal": 5230,
      "avy": 5231,
      "blind": 5232,
      "antu": 5233,
      "11th": 5234,
      "forever": 5235,
      "attended": 5236,
      "ggg": 5237,
      "2022": 5238,
      "ibre": 5239,
      "solving": 5240,
      "solute": 5241,
      "charger": 5242,
      "explaining": 5243,
      "😢😢😢😢": 5244,
      "aagu": 5245,
      "delay": 5246,
      "wished": 5247,
      "chatronics": 5248,
      "maadt": 5249,
      "address": 5250,
      "valu": 5251,
      "curren": 5252,
      "current": 5253,
      "Chilling": 5254,
      "changes": 5255,
      "ONT": 5256,
      "specs": 5257,
      "Kannada": 5258,
      "flipkart": 5259,
      "surface": 5260,
      "😆😆😆😆": 5261,
      "closer": 5262,
      "Woww": 5263,
      "practical": 5264,
      "WHy": 5265,
      "cumm": 5266,
      "announ": 5267,
      "filled": 5268,
      "🤩🤩🤩🤩": 5269,
      "Linked": 5270,
      "disturbance": 5271,
      "According": 5272,
      "records": 5273,
      "Chutiyeee": 5274,
      "prepared": 5275,
      "🥳🔥🥳🔥🥳🔥🥳🔥": 5276,
      "Ughh": 5277,
      "holding": 5278,
      "Answer": 5279,
      "risk": 5280,
      "protection": 5281,
      "Tech": 5282,
      "favour": 5283,
      "virginity": 5284,
      "Gaandu": 5285,
      "product": 5286,
      "Woke": 5287,
      "cooked": 5288,
      "shivu": 5289,
      "ರ್ಥಿ": 5290,
      "ವಿದ್ಯಾರ್ಥಿ": 5291,
      "ವಿದ್ಯಾರ್ಥಿಗಳ": 5292,
      "!.": 5293,
      "1Ym": 5294,
      "87": 5295,
      "98": 5296,
      "Aww": 5297,
      "Bed": 5298,
      "Bto": 5299,
      "Bhargav": 5300,
      "C6": 5301,
      "Da": 5302,
      "Des": 5303,
      "Dany": 5304,
      "Due": 5305,
      "Data": 5306,
      "F6": 5307,
      "Fu": 5308,
      "ION": 5309,
      "KE": 5310,
      "KU": 5311,
      "Life": 5312,
      "Msg": 5313,
      "Nd": 5314,
      "Ooo": 5315,
      "Pp": 5316,
      "Prahruth": 5317,
      "Please": 5318,
      "RV": 5319,
      "Shi": 5320,
      "Stop": 5321,
      "TC": 5322,
      "Toooo": 5323,
      "Turn": 5324,
      "USA": 5325,
      "WE": 5326,
      "Xerox": 5327,
      "YX": 5328,
      "Yy": 5329,
      "ahhh": 5330,
      "bond": 5331,
      "bhargav": 5332,
      "blocked": 5333,
      "cake": 5334,
      "ds": 5335,
      "fat": 5336,
      "further": 5337,
      "gas": 5338,
      "gate": 5339,
      "hid": 5340,
      "hiring": 5341,
      "km": 5342,
      "kal": 5343,
      "kke": 5344,
      "lund": 5345,
      "mart": 5346,
      "micro": 5347,
      "non": 5348,
      "nayana": 5349,
      "neet": 5350,
      "qna": 5351,
      "rlink": 5352,
      "random": 5353,
      "sdi": 5354,
      "tom": 5355,
      "tre": 5356,
      "tree": 5357,
      "ws": 5358,
      "wind": 5359,
      "wire": 5360,
      "zer": 5361,
      "ೆಯ": 5362,
      "😁😅": 5363,
      "ino": 5364,
      "iter": 5365,
      "anal": 5366,
      "stip": 5367,
      "meow": 5368,
      "measure": 5369,
      "heg": 5370,
      "idre": 5371,
      "Yahh": 5372,
      "aytu": 5373,
      "amil": 5374,
      "adh": 5375,
      "ading": 5376,
      "essay": 5377,
      "sae": 5378,
      "sacr": 5379,
      "dosent": 5380,
      "yella": 5381,
      "absent": 5382,
      "lips": 5383,
      "acked": 5384,
      "nah": 5385,
      "naught": 5386,
      "suck": 5387,
      "decl": 5388,
      "anymore": 5389,
      "anywhere": 5390,
      "gotten": 5391,
      "Their": 5392,
      "lol": 5393,
      "loss": 5394,
      "outs": 5395,
      "haswini": 5396,
      "until": 5397,
      "concer": 5398,
      "shoulder": 5399,
      "aah": 5400,
      "aale": 5401,
      "raised": 5402,
      "mba": 5403,
      "istry": 5404,
      "ankal": 5405,
      "Evening": 5406,
      "icket": 5407,
      "earth": 5408,
      "nyt": 5409,
      "avn": 5410,
      "avoid": 5411,
      "gonometry": 5412,
      "Chuu": 5413,
      "mates": 5414,
      "000": 5415,
      "ski": 5416,
      "employ": 5417,
      "shows": 5418,
      "numbers": 5419,
      "secs": 5420,
      "jection": 5421,
      "Alright": 5422,
      "Already": 5423,
      "2023": 5424,
      "2027": 5425,
      "confidence": 5426,
      "system": 5427,
      "😭😭😭😭😭😭": 5428,
      "hpn": 5429,
      "highligh": 5430,
      "bringing": 5431,
      "Slept": 5432,
      "iii": 5433,
      "oppos": 5434,
      "reasons": 5435,
      "passouts": 5436,
      "replying": 5437,
      "addic": 5438,
      "Brooooooo": 5439,
      "Broooooooo": 5440,
      "bored": 5441,
      "setting": 5442,
      "specially": 5443,
      "surpr": 5444,
      "aunt": 5445,
      "triang": 5446,
      "Feels": 5447,
      "Dragon": 5448,
      "raining": 5449,
      "Enough": 5450,
      "peacefully": 5451,
      "projects": 5452,
      "faces": 5453,
      "Internship": 5454,
      "mulas": 5455,
      "Share": 5456,
      "hanging": 5457,
      "respon": 5458,
      "KKKK": 5459,
      "Loude": 5460,
      "Key": 5461,
      "Keerthana": 5462,
      "wedding": 5463,
      "equal": 5464,
      "attached": 5465,
      "xxx": 5466,
      "idiya": 5467,
      "introduc": 5468,
      "💋💋💋💋💋💋💋💋💋💋💋💋💋💋💋💋💋💋💋💋💋💋💋💋💋💋💋💋💋💋💋💋💋💋💋💋💋💋💋💋💋💋💋💋💋💋💋💋💋💋💋💋💋💋💋💋💋💋💋💋💋💋💋💋": 5469,
      "murder": 5470,
      "style": 5471,
      "recommend": 5472,
      "Labour": 5473,
      "responsible": 5474,
      "Family": 5475,
      "couple": 5476,
      "Chatting": 5477,
      "jacket": 5478,
      "similar": 5479,
      "Shabash": 5480,
      "Developer": 5481,
      "Lmao": 5482,
      "SJCE": 5483,
      "highlighted": 5484,
      "opposite": 5485,
      "03": 5486,
      "2Z": 5487,
      "67": 5488,
      "91": 5489,
      "93": 5490,
      "Ano": 5491,
      "ARE": 5492,
      "Bas": 5493,
      "C8": 5494,
      "CL": 5495,
      "Fre": 5496,
      "Foll": 5497,
      "Gro": 5498,
      "Gay": 5499,
      "Hand": 5500,
      "I2N": 5501,
      "Lil": 5502,
      "Love": 5503,
      "M1Ym": 5504,
      "NA": 5505,
      "Nm": 5506,
      "Non": 5507,
      "Nib": 5508,
      "OG": 5509,
      "Pic": 5510,
      "Pri": 5511,
      "S3": 5512,
      "SB": 5513,
      "SI": 5514,
      "Sud": 5515,
      "Slp": 5516,
      "Spec": 5517,
      "Test": 5518,
      "Wry": 5519,
      "Yt": 5520,
      "bik": 5521,
      "block": 5522,
      "cb": 5523,
      "dam": 5524,
      "dani": 5525,
      "dentist": 5526,
      "dz09": 5527,
      "ego": 5528,
      "kit": 5529,
      "kha": 5530,
      "knk": 5531,
      "ox": 5532,
      "ode": 5533,
      "pat": 5534,
      "pink": 5535,
      "sess": 5536,
      "sneakers": 5537,
      "tall": 5538,
      "ub": 5539,
      "ume": 5540,
      "uted": 5541,
      "vs": 5542,
      "wat": 5543,
      "yal": 5544,
      "🙏🙏": 5545,
      "thr": 5546,
      "roles": 5547,
      "ittu": 5548,
      "isha": 5549,
      "recent": 5550,
      "hab": 5551,
      "stack": 5552,
      "street": 5553,
      "Brow": 5554,
      "mem": 5555,
      "meme": 5556,
      "iable": 5557,
      "lemon": 5558,
      "idru": 5559,
      "arshan": 5560,
      "belong": 5561,
      "Wht": 5562,
      "along": 5563,
      "ruin": 5564,
      "ppt": 5565,
      "ofc": 5566,
      "yaaa": 5567,
      "formulas": 5568,
      "shou": 5569,
      "docs": 5570,
      "ential": 5571,
      "lip": 5572,
      "across": 5573,
      "irrit": 5574,
      "naan": 5575,
      "ified": 5576,
      "dest": 5577,
      "depress": 5578,
      "anyways": 5579,
      "updates": 5580,
      "rived": 5581,
      "nodu": 5582,
      "moving": 5583,
      "moder": 5584,
      "donation": 5585,
      "Whattt": 5586,
      "agreed": 5587,
      "ssp": 5588,
      "Chi": 5589,
      "Child": 5590,
      "cons": 5591,
      "context": 5592,
      "conference": 5593,
      "prove": 5594,
      "propose": 5595,
      "lav": 5596,
      "ilt": 5597,
      "maneli": 5598,
      "sleeve": 5599,
      "minimum": 5600,
      "path": 5601,
      "ookah": 5602,
      "akash": 5603,
      "history": 5604,
      "ached": 5605,
      "Relax": 5606,
      "Left": 5607,
      "Meow": 5608,
      "icks": 5609,
      ".............": 5610,
      "150": 5611,
      "submitted": 5612,
      "attention": 5613,
      "Chuuu": 5614,
      "ipal": 5615,
      "Expe": 5616,
      "mindset": 5617,
      "Ikik": 5618,
      "bathing": 5619,
      "Tqtq": 5620,
      "realiz": 5621,
      "friendship": 5622,
      "discover": 5623,
      "accent": 5624,
      "searched": 5625,
      "green": 5626,
      "Program": 5627,
      "Process": 5628,
      "Probab": 5629,
      "hindu": 5630,
      "chart": 5631,
      "faster": 5632,
      "password": 5633,
      "Bruhhhh": 5634,
      "BROO": 5635,
      "pencil": 5636,
      "Anta": 5637,
      "views": 5638,
      "walking": 5639,
      "418EC": 5640,
      "invol": 5641,
      "Most": 5642,
      "rrrr": 5643,
      "lives": 5644,
      "songs": 5645,
      "reached": 5646,
      "legends": 5647,
      "berty": 5648,
      "correctly": 5649,
      "CHOD": 5650,
      "industries": 5651,
      "🥺🥺🥺🥺🥺🥺🥺🥺": 5652,
      "Damnnn": 5653,
      "soooooo": 5654,
      "arrange": 5655,
      "cousins": 5656,
      "loud": 5657,
      "MTc4": 5658,
      "thrown": 5659,
      "spoiler": 5660,
      "gency": 5661,
      "sisters": 5662,
      "wcwcwcwc": 5663,
      "include": 5664,
      "decisions": 5665,
      "Yessss": 5666,
      "consider": 5667,
      "solder": 5668,
      "snq": 5669,
      "concepts": 5670,
      "Ayee": 5671,
      "building": 5672,
      "MmM1Ym": 5673,
      "firm": 5674,
      "likitha": 5675,
      "​​​​​​​​​​​​​​​​​​​​​​​​​​​​​​​​​​​​​​​​​​​​​​​​​​​​​​​​​​​​​​​​​​​​​​​​​​​​​​​​​​​​​​​​​​​​​​​​​​​​​​​​​​​​​​​​​​​​​​​​​​​​​​​​​​​​​​​​​​​​​​​​​​​​​​​​​​​​​​​​​​​​​​​​​​​​​​​​​​​​​​​​​​​​​​​​​​​​​​​​​​​​​​​​​​​​​​​​​​​​​​​​​​​​​​​​​​​​​​​​​​​​​​​​​​​​​​​​​​​​​​​​​​​​​​​​​​​​​​​​​​​​​​​​​​​​​​​​​​​​​​​​​​​​​​​​​​​​​​​​​​​​​​​​​​​​​​​​​​​​​​​​​​​​​​​​​​​​​​​​​​​​​​​​​​​​​​​​​​​​​​​​​​​​​​​​​​​​​​​​​​​​​​​​​​​​​​​​​​​​​​​​​​​​​​​​​​​​​​​​​​​​​​​​​​​​​​​​​​​​​​​​​​​​​​​​​​​​​​​​​​​​​​​​​​​​​​​​​​​​​​​​​​​​​​​​": 5676,
      "lamith": 5677,
      "package": 5678,
      "theorems": 5679,
      "deeply": 5680,
      "ಲ್ಲಿ": 5681,
      "summer": 5682,
      "peaky": 5683,
      "particular": 5684,
      "promise": 5685,
      "soft": 5686,
      "rakshith": 5687,
      "iversity": 5688,
      "circles": 5689,
      "Evry": 5690,
      "Sitting": 5691,
      "gender": 5692,
      "Depends": 5693,
      "experienced": 5694,
      "Timings": 5695,
      "Started": 5696,
      "original": 5697,
      "NULL": 5698,
      "Muslim": 5699,
      "Pussy": 5700,
      "selves": 5701,
      "accepted": 5702,
      "neighbour": 5703,
      "solutely": 5704,
      "currency": 5705,
      "Shivu": 5706,
      "ankalpa": 5707,
      "Another": 5708,
      "Follow": 5709,
      "Group": 5710,
      "I2Ng": 5711,
      "realization": 5712,
      "MTc4MmM1Ym": 5713,
      "MTc4MmM1YmI2Ng": 5714,
      "!\"": 5715,
      ".?": 5716,
      "53": 5717,
      "92": 5718,
      "Aa": 5719,
      "Boring": 5720,
      "CU": 5721,
      "Ca": 5722,
      "Cut": 5723,
      "Dp": 5724,
      "Dou": 5725,
      "Dif": 5726,
      "Ee": 5727,
      "Et": 5728,
      "Either": 5729,
      "GO": 5730,
      "Hal": 5731,
      "IAS": 5732,
      "JSS": 5733,
      "Knk": 5734,
      "Liar": 5735,
      "Mat": 5736,
      "None": 5737,
      "Pen": 5738,
      "Paapa": 5739,
      "Qual": 5740,
      "RI": 5741,
      "S5": 5742,
      "Sun": 5743,
      "Sec": 5744,
      "Tom": 5745,
      "UN": 5746,
      "UU": 5747,
      "Would": 5748,
      "Water": 5749,
      "Xhe": 5750,
      "Yj": 5751,
      "Yu": 5752,
      "Zj": 5753,
      "bite": 5754,
      "bunch": 5755,
      "bene": 5756,
      "c2": 5757,
      "cj": 5758,
      "cers": 5759,
      "cuti": 5760,
      "cpc": 5761,
      "dj": 5762,
      "dag": 5763,
      "digital": 5764,
      "eff": 5765,
      "fry": 5766,
      "fund": 5767,
      "gang": 5768,
      "hom": 5769,
      "iour": 5770,
      "len": 5771,
      "lay": 5772,
      "ni": 5773,
      "nature": 5774,
      "qr": 5775,
      "sar": 5776,
      "silly": 5777,
      "tm": 5778,
      "tro": 5779,
      "tutiye": 5780,
      "testo": 5781,
      "une": 5782,
      "😨😨": 5783,
      "threw": 5784,
      "rop": 5785,
      "edited": 5786,
      "ances": 5787,
      "ishes": 5788,
      "towards": 5789,
      "towel": 5790,
      "rele": 5791,
      "repe": 5792,
      "recharge": 5793,
      "brow": 5794,
      "ories": 5795,
      "heat": 5796,
      "asa": 5797,
      "aside": 5798,
      "idare": 5799,
      "argu": 5800,
      "artha": 5801,
      "chi": 5802,
      "chen": 5803,
      "amp": 5804,
      "advis": 5805,
      "rus": 5806,
      "rush": 5807,
      "ppu": 5808,
      "icate": 5809,
      "Thinking": 5810,
      "urgent": 5811,
      "ability": 5812,
      "acha": 5813,
      "acity": 5814,
      "tage": 5815,
      "canteen": 5816,
      "weight": 5817,
      "Wttt": 5818,
      "opin": 5819,
      "suicide": 5820,
      "dept": 5821,
      "celib": 5822,
      "exist": 5823,
      "modif": 5824,
      "mosqu": 5825,
      "Heyy": 5826,
      "agi": 5827,
      "agons": 5828,
      "affic": 5829,
      "afford": 5830,
      "amele": 5831,
      "lodu": 5832,
      "loda": 5833,
      "Chand": 5834,
      "unless": 5835,
      "ighest": 5836,
      "Whyyy": 5837,
      "corona": 5838,
      "ilities": 5839,
      "raid": 5840,
      "financial": 5841,
      "acts": 5842,
      "odar": 5843,
      "para": 5844,
      "scar": 5845,
      "scard": 5846,
      "feee": 5847,
      "jothe": 5848,
      "joint": 5849,
      "owner": 5850,
      "appear": 5851,
      "prefer": 5852,
      "preference": 5853,
      "Lemme": 5854,
      "cheap": 5855,
      "litreally": 5856,
      "built": 5857,
      "traffic": 5858,
      "submission": 5859,
      "rowdy": 5860,
      "serve": 5861,
      "ives": 5862,
      "standing": 5863,
      "jected": 5864,
      "speed": 5865,
      "visible": 5866,
      "Shan": 5867,
      "emer": 5868,
      "helped": 5869,
      "longer": 5870,
      "gggg": 5871,
      "👊👊👊👊": 5872,
      "SSSS": 5873,
      "puberty": 5874,
      "chapri": 5875,
      "hurted": 5876,
      "ANT": 5877,
      "sterone": 5878,
      "colleges": 5879,
      "opppp": 5880,
      "16th": 5881,
      "frequ": 5882,
      "object": 5883,
      "??????": 5884,
      "courage": 5885,
      "audio": 5886,
      "9999": 5887,
      "messaging": 5888,
      "vibr": 5889,
      "Definitely": 5890,
      "strength": 5891,
      "invited": 5892,
      "specific": 5893,
      "speaker": 5894,
      "smokes": 5895,
      "signature": 5896,
      "😆😆😆": 5897,
      "Model": 5898,
      "Second": 5899,
      "anjay": 5900,
      "Nooooo": 5901,
      "Wowww": 5902,
      "legs": 5903,
      "sooooo": 5904,
      "succeed": 5905,
      "elimination": 5906,
      "ringtone": 5907,
      "spoilers": 5908,
      "bottle": 5909,
      "deser": 5910,
      "descri": 5911,
      "woman": 5912,
      "Arya": 5913,
      "expected": 5914,
      "management": 5915,
      "Mark": 5916,
      "sticker": 5917,
      "devi": 5918,
      "sharing": 5919,
      "masturb": 5920,
      "Raju": 5921,
      "autom": 5922,
      "chapters": 5923,
      "incident": 5924,
      "square": 5925,
      "gtti": 5926,
      "idiot": 5927,
      "general": 5928,
      "complaint": 5929,
      "Attend": 5930,
      "YOUR": 5931,
      "challenge": 5932,
      "proposed": 5933,
      "service": 5934,
      "satisfied": 5935,
      "stationary": 5936,
      "mixed": 5937,
      "wasted": 5938,
      "fuxking": 5939,
      "Charge": 5940,
      "category": 5941,
      "manager": 5942,
      "rishna": 5943,
      "usually": 5944,
      "betray": 5945,
      "straight": 5946,
      "Fresh": 5947,
      "Wryd": 5948,
      "depression": 5949,
      "modern": 5950,
      "!?": 5951,
      "))": 5952,
      "),": 5953,
      "){": 5954,
      "*?": 5955,
      "2100": 5956,
      "2hrs": 5957,
      "37": 5958,
      "56": 5959,
      "61": 5960,
      "74": 5961,
      "81": 5962,
      "AG": 5963,
      "Ang": 5964,
      "Add": 5965,
      "BS": 5966,
      "Bought": 5967,
      "C9": 5968,
      "Cw": 5969,
      "Cal": 5970,
      "Del": 5971,
      "E9": 5972,
      "EX": 5973,
      "Fff": 5974,
      "FEEE": 5975,
      "HI": 5976,
      "Hin": 5977,
      "Hit": 5978,
      "Him": 5979,
      "Hence": 5980,
      "House": 5981,
      "Hindu": 5982,
      "Job": 5983,
      "KING": 5984,
      "Kulla": 5985,
      "MO": 5986,
      "Mid": 5987,
      "NF": 5988,
      "Nim": 5989,
      "Nie": 5990,
      "Ol": 5991,
      "Oct": 5992,
      "Pg": 5993,
      "Pay": 5994,
      "Sch": 5995,
      "Sal": 5996,
      "Ste": 5997,
      "Simple": 5998,
      "Tank": 5999,
      "Tue": 6000,
      "Und": 6001,
      "WA": 6002,
      "X0": 6003,
      "Y3": 6004,
      "_0p": 6005,
      "ahhhh": 6006,
      "b2": 6007,
      "bm": 6008,
      "bz": 6009,
      "bantu": 6010,
      "catering": 6011,
      "dre": 6012,
      "dare": 6013,
      "dann": 6014,
      "fits": 6015,
      "font": 6016,
      "gor": 6017,
      "gandhi": 6018,
      "iya": 6019,
      "ila": 6020,
      "jag": 6021,
      "jok": 6022,
      "jaa": 6023,
      "juni": 6024,
      "kd": 6025,
      "lat": 6026,
      "laying": 6027,
      "mill": 6028,
      "mun": 6029,
      "np": 6030,
      "pun": 6031,
      "pull": 6032,
      "s2": 6033,
      "s5": 6034,
      "tye": 6035,
      "tanku": 6036,
      "vc": 6037,
      "van": 6038,
      "vous": 6039,
      "wok": 6040,
      "winter": 6041,
      "xh": 6042,
      "xk": 6043,
      "xiety": 6044,
      "ಂದು": 6045,
      "😅😂": 6046,
      "🤟🤟": 6047,
      "🥰🥰": 6048,
      "inch": 6049,
      "inte": 6050,
      "injection": 6051,
      "thin": 6052,
      "thick": 6053,
      "role": 6054,
      "ita": 6055,
      "analy": 6056,
      "ented": 6057,
      "isation": 6058,
      "tou": 6059,
      "toooo": 6060,
      "rejected": 6061,
      "sta": 6062,
      "stream": 6063,
      "metal": 6064,
      "heavy": 6065,
      "oudy": 6066,
      "arent": 6067,
      "arently": 6068,
      "chicken": 6069,
      "uty": 6070,
      "bek": 6071,
      "bell": 6072,
      "Whoo": 6073,
      "rule": 6074,
      "rupee": 6075,
      "alle": 6076,
      "icals": 6077,
      "dod": 6078,
      "ural": 6079,
      "Nop": 6080,
      "enda": 6081,
      "tagged": 6082,
      "naanu": 6083,
      "nagar": 6084,
      "usted": 6085,
      "Butt": 6086,
      "event": 6087,
      "ources": 6088,
      "deli": 6089,
      "expo": 6090,
      "exercise": 6091,
      "img": 6092,
      "impress": 6093,
      "mod": 6094,
      "agu": 6095,
      "aged": 6096,
      "loving": 6097,
      "losing": 6098,
      "output": 6099,
      "oka": 6100,
      "mrks": 6101,
      "Chutu": 6102,
      "concent": 6103,
      "studio": 6104,
      "mane": 6105,
      "quality": 6106,
      "byee": 6107,
      "Didnt": 6108,
      "aching": 6109,
      "achieve": 6110,
      "istan": 6111,
      "fa3": 6112,
      "scri": 6113,
      "Reached": 6114,
      "30am": 6115,
      "Bsdkkk": 6116,
      "prepr": 6117,
      "prab": 6118,
      "ulti": 6119,
      "dies": 6120,
      "instit": 6121,
      "storage": 6122,
      "cheated": 6123,
      "earphones": 6124,
      "bully": 6125,
      "madt": 6126,
      "blic": 6127,
      "served": 6128,
      "textbooks": 6129,
      "society": 6130,
      "planet": 6131,
      "Shreyas": 6132,
      "emp": 6133,
      "128": 6134,
      "worrying": 6135,
      "Within": 6136,
      "controll": 6137,
      "contribute": 6138,
      "ggl": 6139,
      "2028": 6140,
      "display": 6141,
      "gap": 6142,
      "compon": 6143,
      "😡😡😡": 6144,
      "supply": 6145,
      "😭😭😭😭😭": 6146,
      "cars": 6147,
      "Produc": 6148,
      "ignoring": 6149,
      "ddd": 6150,
      "Finish": 6151,
      "followed": 6152,
      "puchuk": 6153,
      "weekend": 6154,
      "aagatte": 6155,
      "🥳🥳🥳🥳🥳": 6156,
      "hurting": 6157,
      "Opopop": 6158,
      "passing": 6159,
      "Ofc": 6160,
      "Lollll": 6161,
      "applying": 6162,
      "Human": 6163,
      "ERE": 6164,
      "funeral": 6165,
      "north": 6166,
      "Oyr": 6167,
      "Lodu": 6168,
      "killing": 6169,
      "branches": 6170,
      "bathroom": 6171,
      "flix": 6172,
      "PPPP": 6173,
      "Working": 6174,
      "Cheeeeeeeeeee": 6175,
      "lux": 6176,
      "hormon": 6177,
      "Sub": 6178,
      "files": 6179,
      "enjoying": 6180,
      "discussed": 6181,
      "types": 6182,
      "markscard": 6183,
      "__init": 6184,
      "ordered": 6185,
      "eligible": 6186,
      "spoiled": 6187,
      "informed": 6188,
      "information": 6189,
      "Chutiyas": 6190,
      "Super": 6191,
      "copying": 6192,
      "Frnd": 6193,
      "washing": 6194,
      "🤭🤭🤭🤭🤭🤭🤭🤭": 6195,
      "activities": 6196,
      "hoodie": 6197,
      "shared": 6198,
      "leader": 6199,
      "successful": 6200,
      "pants": 6201,
      "aagila": 6202,
      "image": 6203,
      "void": 6204,
      "organ": 6205,
      "Wont": 6206,
      "Quest": 6207,
      "lady": 6208,
      "Starting": 6209,
      "Parents": 6210,
      "gnsdtc": 6211,
      "large": 6212,
      "title": 6213,
      "midnight_": 6214,
      "poojari": 6215,
      "variable": 6216,
      "govt": 6217,
      "amazing": 6218,
      "patient": 6219,
      "riding": 6220,
      "source": 6221,
      "WILL": 6222,
      "checked": 6223,
      "structure": 6224,
      "Total": 6225,
      "Damodar": 6226,
      "Tharki": 6227,
      "behaviour": 6228,
      "negative": 6229,
      "honest": 6230,
      "judge": 6231,
      "executed": 6232,
      "LinkedIn": 6233,
      "adhana": 6234,
      "employee": 6235,
      "bikes": 6236,
      "Probably": 6237,
      "Shanmuga": 6238,
      "__init__": 6239,
      "\".": 6240,
      ".-": 6241,
      "120": 6242,
      "2d": 6243,
      "2x": 6244,
      "2yrs": 6245,
      "34": 6246,
      "318": 6247,
      "3times": 6248,
      "52": 6249,
      "72": 6250,
      "Awww": 6251,
      "BU": 6252,
      "Bank": 6253,
      "Best": 6254,
      "BIT": 6255,
      "CA": 6256,
      "CR": 6257,
      "C_": 6258,
      "Cx": 6259,
      "Cur": 6260,
      "EP": 6261,
      "Eat": 6262,
      "Feee": 6263,
      "Gif": 6264,
      "Hold": 6265,
      "Hills": 6266,
      "IIT": 6267,
      "Jayanth": 6268,
      "Ka": 6269,
      "Kar": 6270,
      "LO": 6271,
      "MG": 6272,
      "MI": 6273,
      "Min": 6274,
      "March": 6275,
      "Master": 6276,
      "Multi": 6277,
      "Ni": 6278,
      "Ner": 6279,
      "NIE": 6280,
      "OS": 6281,
      "PO": 6282,
      "Pan": 6283,
      "Pain": 6284,
      "PUC": 6285,
      "PMS": 6286,
      "Rain": 6287,
      "Rak": 6288,
      "Sb": 6289,
      "Sc": 6290,
      "Sto": 6291,
      "Sad": 6292,
      "Sof": 6293,
      "Sti": 6294,
      "Supp": 6295,
      "Sharda": 6296,
      "Sanjay": 6297,
      "Ton": 6298,
      "UK": 6299,
      "Vill": 6300,
      "Val": 6301,
      "Wx": 6302,
      "X1": 6303,
      "];": 6304,
      "ae": 6305,
      "bH": 6306,
      "bk": 6307,
      "bon": 6308,
      "bow": 6309,
      "batt": 6310,
      "cof": 6311,
      "dint": 6312,
      "emb": 6313,
      "flo": 6314,
      "fought": 6315,
      "gsi": 6316,
      "gandu": 6317,
      "highest": 6318,
      "iron": 6319,
      "kg": 6320,
      "kam": 6321,
      "kya": 6322,
      "ln": 6323,
      "lcm": 6324,
      "m_": 6325,
      "md": 6326,
      "mic": 6327,
      "mpt": 6328,
      "pha": 6329,
      "pal": 6330,
      "qp": 6331,
      "rt": 6332,
      "ral": 6333,
      "rion": 6334,
      "range": 6335,
      "s6": 6336,
      "sand": 6337,
      "site": 6338,
      "sankalpa": 6339,
      "tally": 6340,
      "tank": 6341,
      "troll": 6342,
      "tamil": 6343,
      "uo": 6344,
      "umb": 6345,
      "wru": 6346,
      "wild": 6347,
      "waking": 6348,
      "yess": 6349,
      "zN": 6350,
      "zed": 6351,
      "ಂದ": 6352,
      "ನಾ": 6353,
      "ನಿ": 6354,
      "ಿಸ": 6355,
      "⚡⚡": 6356,
      "😁😂": 6357,
      "😈😁": 6358,
      "inh": 6359,
      "inorder": 6360,
      "thi": 6361,
      "thag": 6362,
      "eding": 6363,
      "ito": 6364,
      "itive": 6365,
      "antha": 6366,
      "eri": 6367,
      "erab": 6368,
      "omin": 6369,
      "rec": 6370,
      "rev": 6371,
      "repair": 6372,
      "mechatronics": 6373,
      "vey": 6374,
      "asp": 6375,
      "ases": 6376,
      "Open": 6377,
      "andi": 6378,
      "utions": 6379,
      "utm_": 6380,
      "sagay": 6381,
      "icated": 6382,
      "format": 6383,
      "yellow": 6384,
      "aces": 6385,
      "iri": 6386,
      "tered": 6387,
      "ifi": 6388,
      "clas": 6389,
      "tiya": 6390,
      "comfort": 6391,
      "combin": 6392,
      "usion": 6393,
      "exha": 6394,
      "noe": 6395,
      "mob": 6396,
      "mode": 6397,
      "agents": 6398,
      "afraid": 6399,
      "Them": 6400,
      "plast": 6401,
      "lob": 6402,
      "login": 6403,
      "butter": 6404,
      "iggy": 6405,
      "101": 6406,
      "Infront": 6407,
      "convo": 6408,
      "polit": 6409,
      "phd": 6410,
      "acks": 6411,
      "box": 6412,
      "Ambani": 6413,
      "harm": 6414,
      "brary": 6415,
      "aksh": 6416,
      "aksha": 6417,
      "gue": 6418,
      "guru": 6419,
      "action": 6420,
      "yyyyy": 6421,
      "20k": 6422,
      "fault": 6423,
      "sche": 6424,
      "Absolutely": 6425,
      "johnny": 6426,
      "30mins": 6427,
      "pregn": 6428,
      "estab": 6429,
      "spee": 6430,
      "ission": 6431,
      "cheating": 6432,
      "duce": 6433,
      "duino": 6434,
      "tyre": 6435,
      "track": 6436,
      "15days": 6437,
      "avg": 6438,
      "!!!!!!!": 6439,
      "blow": 6440,
      "noobs": 6441,
      "tensed": 6442,
      "jeans": 6443,
      "skip": 6444,
      "Fuckk": 6445,
      "lower": 6446,
      "friday": 6447,
      "nervous": 6448,
      "hhhhhhhh": 6449,
      "Status": 6450,
      "Tqsm": 6451,
      "ortun": 6452,
      "Being": 6453,
      "tests": 6454,
      "dragons": 6455,
      "iva": 6456,
      "complex": 6457,
      "internal": 6458,
      "shash": 6459,
      "=='": 6460,
      "wore": 6461,
      "suppor": 6462,
      "juice": 6463,
      "lecture": 6464,
      "THING": 6465,
      "rectly": 6466,
      "postfix": 6467,
      "eaten": 6468,
      "careers": 6469,
      "mainly": 6470,
      "😂😂😂😂😂😂": 6471,
      "wishing": 6472,
      "double": 6473,
      "passion": 6474,
      "40k": 6475,
      "💦💦💦💦💦": 6476,
      "cleared": 6477,
      "pril": 6478,
      "breakup": 6479,
      "Plan": 6480,
      "basis": 6481,
      "techno": 6482,
      "19th": 6483,
      "invite": 6484,
      "emoj": 6485,
      "Wruf": 6486,
      "smoking": 6487,
      "smoked": 6488,
      "ttttt": 6489,
      "trigonometry": 6490,
      "camp": 6491,
      "campus": 6492,
      "periods": 6493,
      "Pract": 6494,
      "engineer": 6495,
      "pppppppp": 6496,
      "Available": 6497,
      "Post": 6498,
      "universe": 6499,
      "atio": 6500,
      "typed": 6501,
      "😩😩😩": 6502,
      "shoe": 6503,
      "prblms": 6504,
      "Ahhhhhh": 6505,
      "humans": 6506,
      "Classes": 6507,
      "samadhana": 6508,
      "retur": 6509,
      "Bhosdi": 6510,
      "rankbook": 6511,
      "Chutiyee": 6512,
      "Happens": 6513,
      "Nagu": 6514,
      "Hospital": 6515,
      "flirt": 6516,
      "WTF": 6517,
      "approval": 6518,
      "processor": 6519,
      "continues": 6520,
      "(\"%": 6521,
      "---": 6522,
      "effort": 6523,
      "glass": 6524,
      "incipal": 6525,
      "presentation": 6526,
      "Pubg": 6527,
      "capacity": 6528,
      "Trans": 6529,
      "generation": 6530,
      "ladies": 6531,
      "suggested": 6532,
      "Series": 6533,
      "suffering": 6534,
      "training": 6535,
      "Deleted": 6536,
      "fixed": 6537,
      "Btwww": 6538,
      "🔥💥🔥💥": 6539,
      "theorem": 6540,
      "Oomaagu": 6541,
      "Talk": 6542,
      "kondu": 6543,
      "Stuffs": 6544,
      "challeng": 6545,
      "placed": 6546,
      "places": 6547,
      "drawing": 6548,
      "presence": 6549,
      "checking": 6550,
      "cigg": 6551,
      "insert": 6552,
      "film": 6553,
      "recognise": 6554,
      "Ganesh": 6555,
      "College": 6556,
      "computer": 6557,
      "postponed": 6558,
      "intelligent": 6559,
      "episode": 6560,
      "apologize": 6561,
      "Diploma": 6562,
      "Flipkart": 6563,
      "customer": 6564,
      "material": 6565,
      "stipend": 6566,
      "concerned": 6567,
      "Nibba": 6568,
      "memory": 6569,
      "opinion": 6570,
      "touched": 6571,
      "luxur": 6572,
      "midnight_realization": 6573,
      "Tonight": 6574,
      "floor": 6575,
      "erabhad": 6576,
      "!=": 6577,
      "2F": 6578,
      "2b": 6579,
      "230": 6580,
      "2eps": 6581,
      "3g": 6582,
      "68": 6583,
      "9k": 6584,
      "?🤔": 6585,
      "Aff": 6586,
      "Aren": 6587,
      "BV": 6588,
      "Bre": 6589,
      "Ball": 6590,
      "Bfo": 6591,
      "CM": 6592,
      "Cor": 6593,
      "Cry": 6594,
      "City": 6595,
      "DF": 6596,
      "DL": 6597,
      "Dear": 6598,
      "Eh": 6599,
      "El": 6600,
      "Fri": 6601,
      "Find": 6602,
      "Fun": 6603,
      "GV": 6604,
      "Gf": 6605,
      "Gi": 6606,
      "Gym": 6607,
      "Hp": 6608,
      "IA": 6609,
      "Ib": 6610,
      "Im": 6611,
      "Je": 6612,
      "Jan": 6613,
      "Kiss": 6614,
      "Lam": 6615,
      "MD": 6616,
      "Maf": 6617,
      "Nly": 6618,
      "Oopp": 6619,
      "PL": 6620,
      "Pho": 6621,
      "Rs": 6622,
      "Ram": 6623,
      "Sw": 6624,
      "Soo": 6625,
      "Scl": 6626,
      "Sweat": 6627,
      "TU": 6628,
      "Tur": 6629,
      "Took": 6630,
      "Up": 6631,
      "Ut": 6632,
      "Wa": 6633,
      "Wish": 6634,
      "Waste": 6635,
      "X4": 6636,
      "X5": 6637,
      "Z6": 6638,
      "ZX": 6639,
      "]=": 6640,
      "bis": 6641,
      "bid": 6642,
      "bday": 6643,
      "bho": 6644,
      "blast": 6645,
      "bidu": 6646,
      "c3": 6647,
      "cx": 6648,
      "cro": 6649,
      "cing": 6650,
      "cking": 6651,
      "cough": 6652,
      "cross": 6653,
      "dan": 6654,
      "dated": 6655,
      "ek": 6656,
      "email": 6657,
      "fibre": 6658,
      "gur": 6659,
      "ghap": 6660,
      "hs": 6661,
      "hookah": 6662,
      "jss": 6663,
      "jng": 6664,
      "kgtti": 6665,
      "ler": 6666,
      "lnk": 6667,
      "nN": 6668,
      "nh": 6669,
      "pto": 6670,
      "ray": 6671,
      "s7": 6672,
      "sx": 6673,
      "somet": 6674,
      "sons": 6675,
      "tx": 6676,
      "tara": 6677,
      "uhh": 6678,
      "vent": 6679,
      "varshini": 6680,
      "wad": 6681,
      "wati": 6682,
      "yani": 6683,
      "ಿಗೆ": 6684,
      "ೆಗೆ": 6685,
      "🆃🅷": 6686,
      "🔥⚡": 6687,
      "🔥❤": 6688,
      "😂😁": 6689,
      "😔😔": 6690,
      "🤬🤬": 6691,
      "🥶🥶": 6692,
      "inted": 6693,
      "thu": 6694,
      "thy": 6695,
      "ency": 6696,
      "ences": 6697,
      "toff": 6698,
      "toppers": 6699,
      "totally": 6700,
      "repa": 6701,
      "refresh": 6702,
      "reference": 6703,
      "hage": 6704,
      "stal": 6705,
      "stable": 6706,
      "brought": 6707,
      "theme": 6708,
      "ouch": 6709,
      "iddu": 6710,
      "arrived": 6711,
      "chand": 6712,
      "ooth": 6713,
      "Oppo": 6714,
      "bey": 6715,
      "beer": 6716,
      "becomes": 6717,
      "ama": 6718,
      "aming": 6719,
      "alva": 6720,
      "alarm": 6721,
      "adre": 6722,
      "rude": 6723,
      "rules": 6724,
      "allot": 6725,
      "eting": 6726,
      "sale": 6727,
      "Thought": 6728,
      "dosa": 6729,
      "yeah": 6730,
      "urer": 6731,
      "urity": 6732,
      "urbed": 6733,
      "abi": 6734,
      "library": 6735,
      "goku": 6736,
      "tap": 6737,
      "tare": 6738,
      "thish": 6739,
      "canr": 6740,
      "cancer": 6741,
      "ourselves": 6742,
      "click": 6743,
      "clck": 6744,
      "dek": 6745,
      "demand": 6746,
      "tips": 6747,
      "compl": 6748,
      "exe": 6749,
      "upid": 6750,
      "update": 6751,
      "impressed": 6752,
      "Whatttt": 6753,
      "somethinf": 6754,
      "seee": 6755,
      "sees": 6756,
      "ritish": 6757,
      "butt": 6758,
      "university": 6759,
      "Whyyyy": 6760,
      "Hows": 6761,
      "convers": 6762,
      "colate": 6763,
      "female": 6764,
      "perate": 6765,
      "Wel": 6766,
      "manth": 6767,
      "raje": 6768,
      "tooth": 6769,
      "pappu": 6770,
      "finity": 6771,
      "whyy": 6772,
      "brid": 6773,
      "everywhere": 6774,
      "everybody": 6775,
      "scale": 6776,
      "30th": 6777,
      "appreci": 6778,
      "praying": 6779,
      "prasad": 6780,
      "ulate": 6781,
      "intens": 6782,
      "intention": 6783,
      "Lear": 6784,
      "offered": 6785,
      "earning": 6786,
      "madu": 6787,
      "trial": 6788,
      "😈😈😈😈😈": 6789,
      "ards": 6790,
      "blu": 6791,
      "serial": 6792,
      "famili": 6793,
      "matad": 6794,
      "mature": 6795,
      "hibit": 6796,
      "lowda": 6797,
      "vision": 6798,
      "visited": 6799,
      "staring": 6800,
      "180": 6801,
      "nightfall": 6802,
      "truly": 6803,
      "Tqqqqq": 6804,
      "helpful": 6805,
      "drank": 6806,
      "smooth": 6807,
      "daddy": 6808,
      "angel": 6809,
      "tqsm": 6810,
      "HHH": 6811,
      "diff": 6812,
      "handled": 6813,
      "compare": 6814,
      "caring": 6815,
      "Proud": 6816,
      "charged": 6817,
      "caption": 6818,
      "breaking": 6819,
      "izing": 6820,
      "shitty": 6821,
      "highlight": 6822,
      "maintain": 6823,
      "yeno": 6824,
      "ifications": 6825,
      "cricket": 6826,
      "passed": 6827,
      "ITE": 6828,
      "disturbed": 6829,
      "Oppppppp": 6830,
      "impact": 6831,
      "mistakes": 6832,
      "???????": 6833,
      "prior": 6834,
      "Analy": 6835,
      "Play": 6836,
      "rones": 6837,
      "ronic": 6838,
      "curd": 6839,
      "999": 6840,
      "😘😘😘": 6841,
      "basic": 6842,
      "changing": 6843,
      "hotel": 6844,
      "13th": 6845,
      "copies": 6846,
      "legend": 6847,
      "BEST": 6848,
      "bert": 6849,
      "practicals": 6850,
      "bruhhh": 6851,
      "🤣🤣🤣🤣🤣🤣🤣🤣🤣🤣🤣🤣🤣🤣🤣🤣": 6852,
      "Doesn": 6853,
      "Avl": 6854,
      "enjoyed": 6855,
      "filling": 6856,
      "loudu": 6857,
      "deter": 6858,
      "ruthvi": 6859,
      "kissed": 6860,
      "features": 6861,
      "indian": 6862,
      "bullet": 6863,
      "vehicles": 6864,
      "preparing": 6865,
      "Nagara": 6866,
      "yashaswini": 6867,
      "running": 6868,
      "Hole": 6869,
      "advance": 6870,
      "Example": 6871,
      "sounds": 6872,
      "approx": 6873,
      "eshini": 6874,
      "eshwar": 6875,
      "😱😱😱😱": 6876,
      "evryone": 6877,
      "pcmb": 6878,
      "growing": 6879,
      "continued": 6880,
      "burden": 6881,
      "Lowduu": 6882,
      "languages": 6883,
      "aiml": 6884,
      "bunked": 6885,
      "meric": 6886,
      "YYYY": 6887,
      "calculate": 6888,
      "trailer": 6889,
      "Otherwise": 6890,
      "stronger": 6891,
      "suffer": 6892,
      "queen": 6893,
      "Business": 6894,
      "chocolate": 6895,
      "Girls": 6896,
      "irodu": 6897,
      "patience": 6898,
      "pressure": 6899,
      "ALLY": 6900,
      "TAKU": 6901,
      "html": 6902,
      "requires": 6903,
      "imagining": 6904,
      "kirans": 6905,
      "mkc": 6906,
      "intensely": 6907,
      "elec": 6908,
      "driving": 6909,
      "distract": 6910,
      "experiments": 6911,
      "chutuya": 6912,
      "announced": 6913,
      "addicted": 6914,
      "introduction": 6915,
      "khali": 6916,
      "consist": 6917,
      "Expected": 6918,
      "testosterone": 6919,
      "released": 6920,
      "Scholar": 6921,
      "Salary": 6922,
      "Under": 6923,
      "dannie": 6924,
      "delivery": 6925,
      "Chutuye": 6926,
      "BITTAKU": 6927,
      "Software": 6928,
      "Stipend": 6929,
      "Village": 6930,
      "mobile": 6931,
      "speech": 6932,
      "lnkd": 6933,
      "conversation": 6934,
      "families": 6935,
      ".*": 6936,
      "06": 6937,
      "07": 6938,
      "1min": 6939,
      "2gb": 6940,
      "41": 6941,
      "49": 6942,
      "4Z": 6943,
      "4g": 6944,
      "54": 6945,
      "58": 6946,
      "78": 6947,
      "770": 6948,
      "900": 6949,
      ">>": 6950,
      "A4": 6951,
      "AHHHHHHHH": 6952,
      "Could": 6953,
      "Cold": 6954,
      "DK": 6955,
      "Ded": 6956,
      "DId": 6957,
      "Digital": 6958,
      "DAY": 6959,
      "DONT": 6960,
      "E2": 6961,
      "Em": 6962,
      "Era": 6963,
      "Each": 6964,
      "Fever": 6965,
      "Front": 6966,
      "Fffff": 6967,
      "FOR": 6968,
      "Ge": 6969,
      "GOD": 6970,
      "HD": 6971,
      "Ht": 6972,
      "Hard": 6973,
      "High": 6974,
      "JH": 6975,
      "Jk": 6976,
      "Ju": 6977,
      "KI": 6978,
      "Krishna": 6979,
      "L5": 6980,
      "Mw": 6981,
      "Mis": 6982,
      "Mam": 6983,
      "Ment": 6984,
      "Mother": 6985,
      "Mary": 6986,
      "Np": 6987,
      "Nic": 6988,
      "Naale": 6989,
      "Pick": 6990,
      "Poll": 6991,
      "PLE": 6992,
      "RY": 6993,
      "Ru": 6994,
      "S6": 6995,
      "Sy": 6996,
      "Spo": 6997,
      "Sho": 6998,
      "Small": 6999,
      "TJ": 7000,
      "TER": 7001,
      "UX": 7002,
      "Uy": 7003,
      "Vr": 7004,
      "Waah": 7005,
      "Yee": 7006,
      "ather": 7007,
      "aire": 7008,
      "bn": 7009,
      "bere": 7010,
      "bac": 7011,
      "bfo": 7012,
      "cow": 7013,
      "ctors": 7014,
      "d3": 7015,
      "dX": 7016,
      "dh": 7017,
      "dw": 7018,
      "dress": 7019,
      "duty": 7020,
      "eh": 7021,
      "fc": 7022,
      "fi": 7023,
      "fv": 7024,
      "fans": 7025,
      "fission": 7026,
      "gal": 7027,
      "hud": 7028,
      "jor": 7029,
      "kee": 7030,
      "kad": 7031,
      "kgf": 7032,
      "lun": 7033,
      "liar": 7034,
      "mh": 7035,
      "nar": 7036,
      "nim": 7037,
      "nss": 7038,
      "nanj": 7039,
      "nidde": 7040,
      "pop": 7041,
      "pump": 7042,
      "rm": 7043,
      "s1": 7044,
      "slap": 7045,
      "tide": 7046,
      "uro": 7047,
      "uce": 7048,
      "uble": 7049,
      "vin": 7050,
      "vice": 7051,
      "vik": 7052,
      "wag": 7053,
      "wine": 7054,
      "yup": 7055,
      "yaya": 7056,
      "zar": 7057,
      "zip": 7058,
      "Øp": 7059,
      "ЦH": 7060,
      "ЯЦH": 7061,
      "ಂಕ್": 7062,
      "ತ್ತ": 7063,
      "ನೆ": 7064,
      "ಲಾಗ": 7065,
      "ಶ್": 7066,
      "ುದು": 7067,
      "ᴏᴏ": 7068,
      "ᴛʜ": 7069,
      "😫😫": 7070,
      "😭🥹": 7071,
      "🥺😭": 7072,
      "inate": 7073,
      "insec": 7074,
      "thro": 7075,
      "rot": 7076,
      "rology": 7077,
      "anti": 7078,
      "ants": 7079,
      "ert": 7080,
      "enroll": 7081,
      "onwards": 7082,
      "oms": 7083,
      "omas": 7084,
      "attr": 7085,
      "regu": 7086,
      "resolution": 7087,
      "stupid": 7088,
      "mester": 7089,
      "hek": 7090,
      "veget": 7091,
      "leep": 7092,
      "leak": 7093,
      "asing": 7094,
      "asha": 7095,
      "assu": 7096,
      "asara": 7097,
      "Yaar": 7098,
      "chin": 7099,
      "chit": 7100,
      "chan": 7101,
      "cher": 7102,
      "utte": 7103,
      "beard": 7104,
      "because": 7105,
      "amie": 7106,
      "White": 7107,
      "alous": 7108,
      "alright": 7109,
      "ades": 7110,
      "adem": 7111,
      "adhan": 7112,
      "adrat": 7113,
      "esome": 7114,
      "saale": 7115,
      "sect": 7116,
      "sept": 7117,
      "semester": 7118,
      "shing": 7119,
      "shish": 7120,
      "shown": 7121,
      "Noe": 7122,
      "Nopee": 7123,
      "ghan": 7124,
      "Okl": 7125,
      "lies": 7126,
      "soap": 7127,
      "wassup": 7128,
      "academ": 7129,
      "ionaire": 7130,
      "nag": 7131,
      "nail": 7132,
      "notice": 7133,
      "weed": 7134,
      "weap": 7135,
      "geometry": 7136,
      "Buttt": 7137,
      "sue": 7138,
      "sull": 7139,
      "mava": 7140,
      "defin": 7141,
      "define": 7142,
      "uses": 7143,
      "exit": 7144,
      "upon": 7145,
      "nose": 7146,
      "Head": 7147,
      "ney": 7148,
      "aging": 7149,
      "shes": 7150,
      "afe": 7151,
      "affff": 7152,
      "plate": 7153,
      "timetable": 7154,
      "lovers": 7155,
      "okkk": 7156,
      "erys": 7157,
      "ffes": 7158,
      "ctions": 7159,
      "hasnt": 7160,
      "haskar": 7161,
      "Chre": 7162,
      "Choo": 7163,
      "Change": 7164,
      "Ohhoo": 7165,
      "assist": 7166,
      "unte": 7167,
      "conven": 7168,
      "coaching": 7169,
      "proffes": 7170,
      "ishan": 7171,
      "sends": 7172,
      "article": 7173,
      "manj": 7174,
      "hadn": 7175,
      "quit": 7176,
      "Told": 7177,
      "braces": 7178,
      "mbps": 7179,
      "achi": 7180,
      "odes": 7181,
      "parking": 7182,
      "fold": 7183,
      "🤣🤣🤣🤣🤣🤣🤣🤣🤣": 7184,
      "Real": 7185,
      "Seems": 7186,
      "ulty": 7187,
      "ults": 7188,
      "ulsi": 7189,
      "anged": 7190,
      "perspec": 7191,
      "offering": 7192,
      "dip": 7193,
      "divate": 7194,
      "ously": 7195,
      "monk": 7196,
      "cket": 7197,
      "godd": 7198,
      "tricks": 7199,
      "15k": 7200,
      "15th": 7201,
      "avi": 7202,
      "arding": 7203,
      "subtit": 7204,
      "ksha": 7205,
      "netflix": 7206,
      "Wasn": 7207,
      "bail": 7208,
      "fathers": 7209,
      "ika": 7210,
      "ikal": 7211,
      "18th": 7212,
      "partment": 7213,
      "antly": 7214,
      "overthink": 7215,
      "testing": 7216,
      "yesss": 7217,
      "yesssss": 7218,
      "Making": 7219,
      "gaand": 7220,
      "handwriting": 7221,
      "surely": 7222,
      "ibility": 7223,
      "accur": 7224,
      "accident": 7225,
      "kai": 7226,
      "IND": 7227,
      "yaaru": 7228,
      "suppose": 7229,
      "😭😭😭😭😭😭😭": 7230,
      "couldn": 7231,
      "solid": 7232,
      "bari": 7233,
      "baralla": 7234,
      "caed": 7235,
      "Ahhhhh": 7236,
      "public": 7237,
      "Anyone": 7238,
      "posting": 7239,
      "heading": 7240,
      "pressuring": 7241,
      "Lowd": 7242,
      "opportun": 7243,
      "2004": 7244,
      "placements": 7245,
      "scientist": 7246,
      "distance": 7247,
      "ERS": 7248,
      "court": 7249,
      "laughed": 7250,
      "14k": 7251,
      "14th": 7252,
      "ATE": 7253,
      "situations": 7254,
      "bigger": 7255,
      "occur": 7256,
      "stranger": 7257,
      "REV": 7258,
      "surround": 7259,
      "mfs": 7260,
      "trip": 7261,
      "Season": 7262,
      "cloth": 7263,
      "Pray": 7264,
      "******": 7265,
      "Unable": 7266,
      "believed": 7267,
      "practise": 7268,
      "engineers": 7269,
      "drinks": 7270,
      "color": 7271,
      "colum": 7272,
      "darshan": 7273,
      "CHEEEE": 7274,
      "cuits": 7275,
      "cument": 7276,
      "cutoff": 7277,
      "enjoyment": 7278,
      "Days": 7279,
      "17th": 7280,
      "Bruhhhhh": 7281,
      "OUR": 7282,
      "arrass": 7283,
      "HAPP": 7284,
      "aaaaa": 7285,
      "facing": 7286,
      "hearing": 7287,
      "kissing": 7288,
      "laws": 7289,
      "walkers": 7290,
      "shole": 7291,
      "design": 7292,
      "disturbing": 7293,
      "Acti": 7294,
      "Bhosad": 7295,
      "END": 7296,
      "plzzz": 7297,
      "Behenchod": 7298,
      "Marks": 7299,
      "contacts": 7300,
      "Log": 7301,
      "device": 7302,
      "regretting": 7303,
      "figs": 7304,
      "chemistry": 7305,
      "Ughhh": 7306,
      "lands": 7307,
      "independ": 7308,
      "portal": 7309,
      "expired": 7310,
      "equation": 7311,
      "soldering": 7312,
      "Walk": 7313,
      "Answ": 7314,
      "Outside": 7315,
      "organi": 7316,
      "medium": 7317,
      "NOW": 7318,
      "aadru": 7319,
      "turmeric": 7320,
      "North": 7321,
      "formulae": 7322,
      "MAD": 7323,
      "ಲಿಂಕ್": 7324,
      "4317": 7325,
      "wallpaper": 7326,
      "birthday": 7327,
      "volume": 7328,
      "ancing": 7329,
      "Veerabhad": 7330,
      "booked": 7331,
      "pooja": 7332,
      "raswamy": 7333,
      "Guess": 7334,
      "client": 7335,
      "recommended": 7336,
      "cheeks": 7337,
      "Bluetooth": 7338,
      "ranking": 7339,
      "proposal": 7340,
      "particip": 7341,
      "software": 7342,
      "connecting": 7343,
      "qqqqqqqqqqqqqqqq": 7344,
      "Ashoka": 7345,
      "numer": 7346,
      "cmpltd": 7347,
      "cgpa": 7348,
      "Helping": 7349,
      "provided": 7350,
      "providing": 7351,
      "stitution": 7352,
      "Bsdwala": 7353,
      "officer": 7354,
      "official": 7355,
      "increases": 7356,
      "percentage": 7357,
      "celebrate": 7358,
      "EVERY": 7359,
      "yaru": 7360,
      "influen": 7361,
      "ನ್ನು": 7362,
      "Reply": 7363,
      "hackath": 7364,
      "icient": 7365,
      "terrorist": 7366,
      "favourite": 7367,
      "sucks": 7368,
      "skipped": 7369,
      "settings": 7370,
      "surprise": 7371,
      "Nono": 7372,
      "Sudarshan": 7373,
      "session": 7374,
      "shoukd": 7375,
      "Half": 7376,
      "achable": 7377,
      "modify": 7378,
      "deserve": 7379,
      "jokes": 7380,
      "vcf": 7381,
      "components": 7382,
      "hormones": 7383,
      "embarrass": 7384,
      "pregnant": 7385,
      "Break": 7386,
      "Mafia": 7387,
      "Photo": 7388,
      "appreciate": 7389,
      "adratic": 7390,
      "perspective": 7391,
      "Veerabhadraswamy": 7392,
      "\"*": 7393,
      "\"-": 7394,
      "1b": 7395,
      "1rs": 7396,
      "2A": 7397,
      "63": 7398,
      "65": 7399,
      "71": 7400,
      "Au": 7401,
      "Ass": 7402,
      "AFF": 7403,
      "April": 7404,
      "BI": 7405,
      "Bot": 7406,
      "Bes": 7407,
      "C3": 7408,
      "Cv": 7409,
      "Cop": 7410,
      "Chall": 7411,
      "Crush": 7412,
      "Dev": 7413,
      "Date": 7414,
      "Ent": 7415,
      "Especially": 7416,
      "Fing": 7417,
      "Fill": 7418,
      "Fore": 7419,
      "Gon": 7420,
      "HS": 7421,
      "Hr": 7422,
      "Haa": 7423,
      "Hpy": 7424,
      "Ill": 7425,
      "Ita": 7426,
      "Ikk": 7427,
      "Jay": 7428,
      "Know": 7429,
      "Long": 7430,
      "LPA": 7431,
      "Mg": 7432,
      "Mh": 7433,
      "Mj": 7434,
      "Mk": 7435,
      "Mor": 7436,
      "Mind": 7437,
      "Mob": 7438,
      "Mention": 7439,
      "N3": 7440,
      "Ng": 7441,
      "NOT": 7442,
      "Nidde": 7443,
      "Og": 7444,
      "Oi": 7445,
      "Oop": 7446,
      "Oue": 7447,
      "Ouch": 7448,
      "Pt": 7449,
      "Poo": 7450,
      "Pol": 7451,
      "PIN": 7452,
      "RC": 7453,
      "RF": 7454,
      "Ri": 7455,
      "Rip": 7456,
      "SL": 7457,
      "Sk": 7458,
      "Speak": 7459,
      "TI": 7460,
      "TZ": 7461,
      "Tf": 7462,
      "Tok": 7463,
      "Two": 7464,
      "Taking": 7465,
      "UP": 7466,
      "Vi": 7467,
      "Vis": 7468,
      "Vruh": 7469,
      "Vide": 7470,
      "W8": 7471,
      "WN": 7472,
      "Wom": 7473,
      "Way": 7474,
      "Wass": 7475,
      "X3": 7476,
      "Y0": 7477,
      "ZD": 7478,
      "_app": 7479,
      "_name": 7480,
      "a4": 7481,
      "ax": 7482,
      "bic": 7483,
      "bone": 7484,
      "bend": 7485,
      "bare": 7486,
      "bart": 7487,
      "buck": 7488,
      "cX": 7489,
      "cried": 7490,
      "c26": 7491,
      "ej": 7492,
      "fs": 7493,
      "fro": 7494,
      "fish": 7495,
      "gri": 7496,
      "gpt": 7497,
      "hf": 7498,
      "hing": 7499,
      "hating": 7500,
      "iru": 7501,
      "iate": 7502,
      "java": 7503,
      "kay": 7504,
      "kick": 7505,
      "lh": 7506,
      "lilla": 7507,
      "lord": 7508,
      "length": 7509,
      "mut": 7510,
      "mers": 7511,
      "mps": 7512,
      "nit": 7513,
      "nick": 7514,
      "og": 7515,
      "oj": 7516,
      "oye": 7517,
      "ograph": 7518,
      "pQ": 7519,
      "pZ": 7520,
      "pf": 7521,
      "pes": 7522,
      "pure": 7523,
      "rare": 7524,
      "ratch": 7525,
      "race": 7526,
      "rance": 7527,
      "ratio": 7528,
      "s8": 7529,
      "sme": 7530,
      "sbt": 7531,
      "slight": 7532,
      "tya": 7533,
      "tir": 7534,
      "ture": 7535,
      "tue": 7536,
      "tution": 7537,
      "ula": 7538,
      "umber": 7539,
      "vz": 7540,
      "vya": 7541,
      "vacc": 7542,
      "watt": 7543,
      "wishes": 7544,
      "za": 7545,
      "zc": 7546,
      "zan": 7547,
      "||": 7548,
      "ಕನ್ನ": 7549,
      "ಮಾ": 7550,
      "ಸ್": 7551,
      "✊💦💦": 7552,
      "🔥*": 7553,
      "😳😳": 7554,
      "🥵🥵": 7555,
      "ining": 7556,
      "input": 7557,
      "infinity": 7558,
      "thor": 7559,
      "thini": 7560,
      "thos": 7561,
      "thigh": 7562,
      "rors": 7563,
      "rock": 7564,
      "itor": 7565,
      "anted": 7566,
      "ante": 7567,
      "anxiety": 7568,
      "enp": 7569,
      "ensil": 7570,
      "onde": 7571,
      "ondu": 7572,
      "omit": 7573,
      "ato": 7574,
      "isted": 7575,
      "tok": 7576,
      "rey": 7577,
      "rece": 7578,
      "release": 7579,
      "hapa": 7580,
      "sti": 7581,
      "stic": 7582,
      "stage": 7583,
      "broker": 7584,
      "theon": 7585,
      "orange": 7586,
      "illi": 7587,
      "lele": 7588,
      "asy": 7589,
      "asleep": 7590,
      "owow": 7591,
      "armod": 7592,
      "chro": 7593,
      "ota": 7594,
      "utensil": 7595,
      "bele": 7596,
      "amarth": 7597,
      "saree": 7598,
      "icked": 7599,
      "shy": 7600,
      "dog": 7601,
      "document": 7602,
      "entrance": 7603,
      "abric": 7604,
      "abusing": 7605,
      "liking": 7606,
      "lify": 7607,
      "actor": 7608,
      "ender": 7609,
      "goal": 7610,
      "goals": 7611,
      "tag": 7612,
      "taste": 7613,
      "naale": 7614,
      "cane": 7615,
      "noticed": 7616,
      "term": 7617,
      "tern": 7618,
      "ours": 7619,
      "suru": 7620,
      "sugar": 7621,
      "cls": 7622,
      "clud": 7623,
      "cloudy": 7624,
      "debt": 7625,
      "deposit": 7626,
      "anytime": 7627,
      "upcoming": 7628,
      "upiter": 7629,
      "updated": 7630,
      "rix": 7631,
      "moon": 7632,
      "rudula": 7633,
      "herr": 7634,
      "aghap": 7635,
      "agiri": 7636,
      "somehow": 7637,
      "Theore": 7638,
      "sslc": 7639,
      "pluto": 7640,
      "Waitt": 7641,
      "ep1": 7642,
      "button": 7643,
      "Telll": 7644,
      "unknown": 7645,
      "gious": 7646,
      "wonder": 7647,
      "ooda": 7648,
      "Inst": 7649,
      "Info": 7650,
      "cony": 7651,
      "contain": 7652,
      "core": 7653,
      "cohol": 7654,
      "coord": 7655,
      "produce": 7656,
      "iling": 7657,
      "phns": 7658,
      "perform": 7659,
      "Wear": 7660,
      "boii": 7661,
      "raise": 7662,
      "ratha": 7663,
      "qual": 7664,
      "quant": 7665,
      "mug": 7666,
      "muted": 7667,
      "Americ": 7668,
      "classroom": 7669,
      "Naan": 7670,
      "akagiri": 7671,
      "odu": 7672,
      "backlog": 7673,
      "istic": 7674,
      "essed": 7675,
      "homework": 7676,
      "fair": 7677,
      "foc": 7678,
      "scratch": 7679,
      "waited": 7680,
      "versa": 7681,
      "joke": 7682,
      "30k": 7683,
      "pret": 7684,
      "premi": 7685,
      "prevent": 7686,
      "pris": 7687,
      "lateral": 7688,
      "anga": 7689,
      "spy": 7690,
      "please": 7691,
      "ppls": 7692,
      "astrology": 7693,
      "lite": 7694,
      "cleaning": 7695,
      "monisha": 7696,
      "tyres": 7697,
      "tyrion": 7698,
      "trading": 7699,
      "helps": 7700,
      "avl": 7701,
      "avan": 7702,
      "avnu": 7703,
      "gradu": 7704,
      "kkkk": 7705,
      "netic": 7706,
      "matte": 7707,
      "matrix": 7708,
      "Exc": 7709,
      "jealous": 7710,
      "sition": 7711,
      "frsh": 7712,
      "bae": 7713,
      "Short": 7714,
      "Shukra": 7715,
      "12th": 7716,
      "🔥🔥🔥🔥🔥🔥🔥🔥🔥": 7717,
      "showroom": 7718,
      "OOO": 7719,
      "hardly": 7720,
      "ived": 7721,
      "ival": 7722,
      "loves": 7723,
      "secre": 7724,
      "international": 7725,
      "uuuuu": 7726,
      "Alone": 7727,
      "Almost": 7728,
      "Max": 7729,
      "suresh": 7730,
      "compass": 7731,
      "leftlink": 7732,
      "Everytime": 7733,
      "grey": 7734,
      "Prote": 7735,
      "zzzz": 7736,
      "playlist": 7737,
      "OTP": 7738,
      "hindus": 7739,
      "capt": 7740,
      "caeg": 7741,
      "push": 7742,
      "THIS": 7743,
      "brea": 7744,
      "cruel": 7745,
      "izer": 7746,
      "scolds": 7747,
      "weekends": 7748,
      "chair": 7749,
      "ounds": 7750,
      "cuss": 7751,
      "loose": 7752,
      "Comple": 7753,
      "yenadru": 7754,
      "brothers": 7755,
      "maadta": 7756,
      "keeping": 7757,
      "credit": 7758,
      "older": 7759,
      "placement": 7760,
      "chilled": 7761,
      "groups": 7762,
      "saturn": 7763,
      "turu": 7764,
      "tumba": 7765,
      "Yeahh": 7766,
      "404": 7767,
      "attempt": 7768,
      "calc": 7769,
      "mistaken": 7770,
      "priv": 7771,
      "143": 7772,
      "centre": 7773,
      "sensor": 7774,
      "Confirm": 7775,
      "curr": 7776,
      "crypto": 7777,
      "athu": 7778,
      "Mane": 7779,
      "Manja": 7780,
      "Degree": 7781,
      "Indust": 7782,
      "Indian": 7783,
      "13k": 7784,
      "redd": 7785,
      "signed": 7786,
      "Cheeeeeeeee": 7787,
      "aunties": 7788,
      "2327": 7789,
      "anjana": 7790,
      "clock": 7791,
      "bangalore": 7792,
      "letters": 7793,
      "Prasad": 7794,
      "Uni": 7795,
      "Uncle": 7796,
      "😍😍😍😍": 7797,
      "maggi": 7798,
      "celling": 7799,
      "FFFFF": 7800,
      "horse": 7801,
      "costs": 7802,
      "🤣🤣🤣🤣🤣🤣🤣🤣🤣🤣": 7803,
      "WHY": 7804,
      "WHAT": 7805,
      "bhaya": 7806,
      "discussing": 7807,
      "Enter": 7808,
      "OULD": 7809,
      "sooooooo": 7810,
      "OOOOOOOO": 7811,
      "peaceful": 7812,
      "powder": 7813,
      "factory": 7814,
      "registration": 7815,
      "aches": 7816,
      "stealed": 7817,
      "direction": 7818,
      "SHOG": 7819,
      "indirectly": 7820,
      "logic": 7821,
      "Arduino": 7822,
      "Shitt": 7823,
      "Nagraj": 7824,
      "balcony": 7825,
      "anush": 7826,
      "zainab": 7827,
      "falls": 7828,
      "itional": 7829,
      "washed": 7830,
      "transis": 7831,
      "transport": 7832,
      "Marriage": 7833,
      "activated": 7834,
      "approach": 7835,
      "WhatsApp": 7836,
      "Rather": 7837,
      "grown": 7838,
      "struggling": 7839,
      "fyn": 7840,
      "🌊🌊🌊🌊": 7841,
      "registered": 7842,
      "ಕ್ಷ": 7843,
      "airtel": 7844,
      "pollo": 7845,
      "screamed": 7846,
      "Quick": 7847,
      "profession": 7848,
      "pods": 7849,
      "😭😭😭😭😭😭😭😭😭😭😭😭😭😭😭😭": 7850,
      "Whoms": 7851,
      "Naughtyyyyy": 7852,
      "eralava": 7853,
      "allowed": 7854,
      "installed": 7855,
      "revealed": 7856,
      "Btwwww": 7857,
      "DOnt": 7858,
      "Attention": 7859,
      "Talking": 7860,
      "crctly": 7861,
      "ಲ್ಲ": 7862,
      "amazon": 7863,
      "shiva": 7864,
      "Wtfffff": 7865,
      "Autoliv": 7866,
      "remaining": 7867,
      "bhatta": 7868,
      "critic": 7869,
      "encing": 7870,
      "Registration": 7871,
      "kodu": 7872,
      "wasting": 7873,
      "insertion": 7874,
      "assignment": 7875,
      "COMP": 7876,
      "Electric": 7877,
      "Electronics": 7878,
      "Peace": 7879,
      "potential": 7880,
      "vvvv": 7881,
      "🔥💦🔥💦": 7882,
      "clarify": 7883,
      "seniors": 7884,
      "kiram": 7885,
      "unfollowed": 7886,
      "Sansa": 7887,
      "savings": 7888,
      "postpone": 7889,
      "intelligence": 7890,
      "consume": 7891,
      "consult": 7892,
      "experiment": 7893,
      "Cycle": 7894,
      "Ninge": 7895,
      "crazy": 7896,
      "kelsa": 7897,
      "comfortable": 7898,
      "Engineering": 7899,
      "soulmate": 7900,
      "development": 7901,
      "Surendar": 7902,
      "separate": 7903,
      "blinders": 7904,
      "cumming": 7905,
      "sacrific": 7906,
      "declared": 7907,
      "response": 7908,
      "couples": 7909,
      "418EC2100": 7910,
      "involved": 7911,
      "Eew": 7912,
      "benefit": 7913,
      "cersie": 7914,
      "trouble": 7915,
      "celibate": 7916,
      "mosquito": 7917,
      "emergency": 7918,
      "frequency": 7919,
      "describe": 7920,
      "Steal": 7921,
      "concentrate": 7922,
      "prabhu": 7923,
      "variables": 7924,
      "Karnataka": 7925,
      "battle": 7926,
      "coffee": 7927,
      "exhausted": 7928,
      "akshmi": 7929,
      "shashwati": 7930,
      "emojis": 7931,
      "returning": 7932,
      "Balls": 7933,
      "execute": 7934,
      "Analyst": 7935,
      "Nagaraja": 7936,
      "regular": 7937,
      "chinos": 7938,
      "ghanistan": 7939,
      "Activa": 7940,
      "Answers": 7941,
      "hackathon": 7942,
      "Video": 7943,
      "ography": 7944,
      "ಕನ್ನಡ": 7945,
      "cluding": 7946,
      "((": 7947,
      ",?": 7948,
      "-/?": 7949,
      ".!": 7950,
      "02": 7951,
      "2u": 7952,
      "415": 7953,
      "5e": 7954,
      "547": 7955,
      "6gb": 7956,
      "750": 7957,
      "800": 7958,
      "?!!!!": 7959,
      "Ali": 7960,
      "Air": 7961,
      "Ade": 7962,
      "Aim": 7963,
      "Aun": 7964,
      "Adu": 7965,
      "AST": 7966,
      "AHHHH": 7967,
      "BP": 7968,
      "Bh": 7969,
      "Bat": 7970,
      "Bdo": 7971,
      "Bag": 7972,
      "Bike": 7973,
      "Cle": 7974,
      "Cam": 7975,
      "Cje": 7976,
      "CAN": 7977,
      "CON": 7978,
      "Cool": 7979,
      "D6": 7980,
      "Dh": 7981,
      "Det": 7982,
      "Dec": 7983,
      "During": 7984,
      "DID": 7985,
      "Ec": 7986,
      "Ez": 7987,
      "Ele": 7988,
      "Educ": 7989,
      "F1": 7990,
      "FB": 7991,
      "FI": 7992,
      "Fo": 7993,
      "Fv": 7994,
      "Fru": 7995,
      "Future": 7996,
      "Ffff": 7997,
      "GR": 7998,
      "GT": 7999,
      "Hh": 8000,
      "Hot": 8001,
      "Hall": 8002,
      "Hav": 8003,
      "HOW": 8004,
      "Ish": 8005,
      "JP": 8006,
      "Jss": 8007,
      "Jist": 8008,
      "KA": 8009,
      "Kya": 8010,
      "Kir": 8011,
      "Knew": 8012,
      "Kull": 8013,
      "L3": 8014,
      "La": 8015,
      "Li": 8016,
      "Lev": 8017,
      "Light": 8018,
      "Live": 8019,
      "Law": 8020,
      "MJ": 8021,
      "Met": 8022,
      "MAN": 8023,
      "Mumb": 8024,
      "NE": 8025,
      "NH": 8026,
      "NI": 8027,
      "NW": 8028,
      "Nt": 8029,
      "Nz": 8030,
      "Nang": 8031,
      "Nikal": 8032,
      "P0": 8033,
      "Pod": 8034,
      "Pms": 8035,
      "Pics": 8036,
      "Qk": 8037,
      "Rank": 8038,
      "Rob": 8039,
      "Root": 8040,
      "S2": 8041,
      "SC": 8042,
      "Sn": 8043,
      "Sri": 8044,
      "Sim": 8045,
      "Str": 8046,
      "Sum": 8047,
      "Sem": 8048,
      "Sneakers": 8049,
      "TB": 8050,
      "Tv": 8051,
      "Tum": 8052,
      "Treat": 8053,
      "UR": 8054,
      "Um": 8055,
      "Uff": 8056,
      "Using": 8057,
      "Voice": 8058,
      "Wake": 8059,
      "Whay": 8060,
      "X2": 8061,
      "YQ": 8062,
      "Yk": 8063,
      "Yw": 8064,
      "Yz": 8065,
      "Yas": 8066,
      "Yet": 8067,
      "Yyy": 8068,
      "Yyyy": 8069,
      "Years": 8070,
      "Z3": 8071,
      "_ref": 8072,
      "b1": 8073,
      "b3": 8074,
      "bG": 8075,
      "bms": 8076,
      "boob": 8077,
      "bast": 8078,
      "catch": 8079,
      "cram": 8080,
      "cmp": 8081,
      "curs": 8082,
      "cwcwcwcwc": 8083,
      "dQ": 8084,
      "dat": 8085,
      "dome": 8086,
      "dic": 8087,
      "dancing": 8088,
      "fle": 8089,
      "fly": 8090,
      "gam": 8091,
      "gpay": 8092,
      "hv": 8093,
      "honey": 8094,
      "ih": 8095,
      "jk": 8096,
      "jar": 8097,
      "jun": 8098,
      "jib": 8099,
      "kb": 8100,
      "kur": 8101,
      "kure": 8102,
      "kgs": 8103,
      "kooda": 8104,
      "lr": 8105,
      "lic": 8106,
      "nl": 8107,
      "nes": 8108,
      "nig": 8109,
      "ola": 8110,
      "ohhh": 8111,
      "obs": 8112,
      "pruthvi": 8113,
      "ruti": 8114,
      "sone": 8115,
      "swe": 8116,
      "smar": 8117,
      "simp": 8118,
      "sanjana": 8119,
      "tte": 8120,
      "tutiya": 8121,
      "terest": 8122,
      "tamma": 8123,
      "tissue": 8124,
      "una": 8125,
      "vy": 8126,
      "via": 8127,
      "vot": 8128,
      "vruh": 8129,
      "vive": 8130,
      "vari": 8131,
      "wings": 8132,
      "wai": 8133,
      "yh": 8134,
      "yhe": 8135,
      "ɪɴ": 8136,
      "БЯЦH": 8137,
      "ಂಟ": 8138,
      "ಕರ": 8139,
      "ಗ್": 8140,
      "ಗಂಟ": 8141,
      "ತರ": 8142,
      "ರಾ": 8143,
      "ರೀ": 8144,
      "ಶಾ": 8145,
      "ಸ್ತ": 8146,
      "💯💯": 8147,
      "😀😀": 8148,
      "😬😬": 8149,
      "iny": 8150,
      "insp": 8151,
      "incomplete": 8152,
      "intim": 8153,
      "thn": 8154,
      "three": 8155,
      "thie": 8156,
      "rog": 8157,
      "rode": 8158,
      "robot": 8159,
      "edy": 8160,
      "edge": 8161,
      "itm": 8162,
      "ites": 8163,
      "itation": 8164,
      "anch": 8165,
      "eria": 8166,
      "eries": 8167,
      "encourage": 8168,
      "omg": 8169,
      "omial": 8170,
      "inge": 8171,
      "ision": 8172,
      "resis": 8173,
      "recru": 8174,
      "researching": 8175,
      "reachable": 8176,
      "sted": 8177,
      "stone": 8178,
      "stret": 8179,
      "steps": 8180,
      "Broww": 8181,
      "broad": 8182,
      "broooooo": 8183,
      "mess": 8184,
      "thet": 8185,
      "helo": 8186,
      "illeg": 8187,
      "veen": 8188,
      "vels": 8189,
      "ias": 8190,
      "asshole": 8191,
      "oule": 8192,
      "idiv": 8193,
      "iddre": 8194,
      "arily": 8195,
      "arrog": 8196,
      "chus": 8197,
      "oops": 8198,
      "Option": 8199,
      "ands": 8200,
      "ander": 8201,
      "andid": 8202,
      "utta": 8203,
      "bel": 8204,
      "behen": 8205,
      "among": 8206,
      "alth": 8207,
      "alcohol": 8208,
      "ads": 8209,
      "admit": 8210,
      "wht": 8211,
      "whixh": 8212,
      "allel": 8213,
      "often": 8214,
      "ica": 8215,
      "icte": 8216,
      "forman": 8217,
      "shout": 8218,
      "shoot": 8219,
      "shenda": 8220,
      "doll": 8221,
      "urdu": 8222,
      "entai": 8223,
      "abr": 8224,
      "abs": 8225,
      "limit": 8226,
      "achel": 8227,
      "acknowledge": 8228,
      "endra": 8229,
      "taha": 8230,
      "tapped": 8231,
      "naaa": 8232,
      "nagra": 8233,
      "naveen": 8234,
      "notification": 8235,
      "weird": 8236,
      "Wtsp": 8237,
      "Butttt": 8238,
      "Ohoo": 8239,
      "Ohkk": 8240,
      "opa": 8241,
      "areas": 8242,
      "arette": 8243,
      "ifice": 8244,
      "sus": 8245,
      "depend": 8246,
      "tight": 8247,
      "tiger": 8248,
      "usize": 8249,
      "ushal": 8250,
      "exchange": 8251,
      "ups": 8252,
      "noc": 8253,
      "imala": 8254,
      "dko": 8255,
      "herw": 8256,
      "nel": 8257,
      "ager": 8258,
      "agar": 8259,
      "??!!!!": 8260,
      "afdivate": 8261,
      "Theory": 8262,
      "ssion": 8263,
      "seek": 8264,
      "mmed": 8265,
      "ep4": 8266,
      "lobal": 8267,
      "Chr": 8268,
      "Chii": 8269,
      "Ohho": 8270,
      "untill": 8271,
      "wton": 8272,
      "Including": 8273,
      "conv": 8274,
      "proved": 8275,
      "lake": 8276,
      "lazy": 8277,
      "pocket": 8278,
      "aago": 8279,
      "psy": 8280,
      "phan": 8281,
      "performan": 8282,
      "unde": 8283,
      "bolt": 8284,
      "manip": 8285,
      "manege": 8286,
      "slef": 8287,
      "minar": 8288,
      "minute": 8289,
      "quid": 8290,
      "classmates": 8291,
      "byt": 8292,
      "bram": 8293,
      "iest": 8294,
      "akes": 8295,
      "guuu": 8296,
      "hishek": 8297,
      "sentences": 8298,
      "backchodi": 8299,
      "everytime": 8300,
      "themat": 8301,
      "olk": 8302,
      "ramprasad": 8303,
      "ansatte": 8304,
      "apple": 8305,
      "prash": 8306,
      "spare": 8307,
      "youth": 8308,
      "moms": 8309,
      "moments": 8310,
      "instru": 8311,
      "extended": 8312,
      "bleeding": 8313,
      "stoic": 8314,
      "chethan": 8315,
      "Mech": 8316,
      "Meaning": 8317,
      "lity": 8318,
      "cles": 8319,
      "earphone": 8320,
      "bud": 8321,
      "texts": 8322,
      "madde": 8323,
      "linear": 8324,
      "🥲🥲🥲🥲🥲": 8325,
      "trait": 8326,
      "blur": 8327,
      "Afghanistan": 8328,
      "noobde": 8329,
      "rounds": 8330,
      "famous": 8331,
      "matches": 8332,
      "hire": 8333,
      "Yaaaaaaa": 8334,
      "Yaaaaaa": 8335,
      "Experien": 8336,
      "eeeeee": 8337,
      "eeeeeeee": 8338,
      "girish": 8339,
      "umali": 8340,
      "sitive": 8341,
      "spected": 8342,
      "parts": 8343,
      "???!!!": 8344,
      "forest": 8345,
      "foremost": 8346,
      "Bega": 8347,
      "OOD": 8348,
      "Sedd": 8349,
      "ivity": 8350,
      "formal": 8351,
      "discount": 8352,
      "gaz": 8353,
      "dying": 8354,
      "cyber": 8355,
      "compul": 8356,
      "confusing": 8357,
      "INR": 8358,
      "syn": 8359,
      "finding": 8360,
      "Project": 8361,
      "Noobs": 8362,
      "zza": 8363,
      "lecturer": 8364,
      "Vroooo": 8365,
      "decre": 8366,
      "crushes": 8367,
      "chain": 8368,
      "aagide": 8369,
      "aagala": 8370,
      "aagtide": 8371,
      "cares": 8372,
      "careful": 8373,
      "ANd": 8374,
      "Compar": 8375,
      "Commun": 8376,
      "Mcq": 8377,
      "Byr": 8378,
      "media": 8379,
      "medical": 8380,
      "answered": 8381,
      "maado": 8382,
      "maadbeku": 8383,
      "200rs": 8384,
      "moral": 8385,
      "ultra": 8386,
      "Yours": 8387,
      "tune": 8388,
      "Yepp": 8389,
      "160": 8390,
      "freaking": 8391,
      "childish": 8392,
      "lesbi": 8393,
      "labs": 8394,
      "misunderstood": 8395,
      "condition": 8396,
      "breakfast": 8397,
      "grandparents": 8398,
      "timing": 8399,
      "993": 8400,
      "ATB": 8401,
      "ATION": 8402,
      "sihed": 8403,
      "reports": 8404,
      "Asked": 8405,
      "swim": 8406,
      "Yupppp": 8407,
      "electronic": 8408,
      "strate": 8409,
      "speaks": 8410,
      "surr": 8411,
      "surendar": 8412,
      "villain": 8413,
      "tttttt": 8414,
      "cedure": 8415,
      "Internet": 8416,
      "Nooooooo": 8417,
      "Prab": 8418,
      "legal": 8419,
      "beaten": 8420,
      "connection": 8421,
      "magnetic": 8422,
      "FFFFFF": 8423,
      "Avn": 8424,
      "Position": 8425,
      "🥺🥺🥺🥺🥺": 8426,
      "Bio": 8427,
      "Students": 8428,
      "difficulty": 8429,
      "tainment": 8430,
      "aaaaaa": 8431,
      "spending": 8432,
      "ruthi": 8433,
      "failure": 8434,
      "regarding": 8435,
      "Thanks": 8436,
      "methods": 8437,
      "Ahhhhhhh": 8438,
      "Acc": 8439,
      "drugs": 8440,
      "focusing": 8441,
      "😡😡😡😡😡😡😡😡": 8442,
      "biryani": 8443,
      "denomin": 8444,
      "implement": 8445,
      "confirmation": 8446,
      "balance": 8447,
      "hangs": 8448,
      "importance": 8449,
      "powerful": 8450,
      "tickets": 8451,
      "ECT": 8452,
      "colours": 8453,
      "reminded": 8454,
      "advanta": 8455,
      "applic": 8456,
      "Lock": 8457,
      "sharp": 8458,
      "regression": 8459,
      "leads": 8460,
      "nnn": 8461,
      "country": 8462,
      "religious": 8463,
      "operated": 8464,
      "😈😈😈😈😈😈😈😈": 8465,
      "technically": 8466,
      "29th": 8467,
      "processing": 8468,
      "Workshop": 8469,
      "successfully": 8470,
      "continuing": 8471,
      "burnt": 8472,
      "Lowduuu": 8473,
      "Walcu": 8474,
      "Yenu": 8475,
      "snacks": 8476,
      "hydro": 8477,
      "protein": 8478,
      "protected": 8479,
      "brand_id": 8480,
      "scenari": 8481,
      "OMG": 8482,
      "calculated": 8483,
      "Ninu": 8484,
      "Ninna": 8485,
      "Trave": 8486,
      "ಿದ್": 8487,
      "instein": 8488,
      "Seriously": 8489,
      "uploading": 8490,
      "physical": 8491,
      "scholarships": 8492,
      "includes": 8493,
      "Likitha": 8494,
      "Type": 8495,
      "flower": 8496,
      "voltage": 8497,
      "expense": 8498,
      "cooking": 8499,
      "refused": 8500,
      "proofs": 8501,
      "Guru": 8502,
      "Oomagu": 8503,
      "clients": 8504,
      "konde": 8505,
      "arrives": 8506,
      "comparing": 8507,
      "😘😘😘😘😘😘😘😘": 8508,
      "satisfy": 8509,
      "Girl": 8510,
      "massa": 8511,
      "Revise": 8512,
      "critical": 8513,
      "Register": 8514,
      "godddd": 8515,
      "competition": 8516,
      "competitive": 8517,
      "diagrams": 8518,
      "Chapri": 8519,
      "Lesson": 8520,
      "casually": 8521,
      "😎😎😎": 8522,
      "🙄🙄🙄": 8523,
      "assigned": 8524,
      "assignments": 8525,
      "grabbed": 8526,
      "fuxked": 8527,
      "FROM": 8528,
      "ajji": 8529,
      "filter": 8530,
      "Father": 8531,
      "GET": 8532,
      "ಪ್ರಶ್": 8533,
      "conduct": 8534,
      "sundays": 8535,
      "Earlier": 8536,
      "GHT": 8537,
      "bench": 8538,
      "computers": 8539,
      "tqtqtqtqtqtqtqtqtqtqtqtqtqtqtqtq": 8540,
      "driver": 8541,
      "witch": 8542,
      "episodes": 8543,
      "distracted": 8544,
      "kashmir": 8545,
      "Engineer": 8546,
      "Feb": 8547,
      "piece": 8548,
      "tears": 8549,
      "separately": 8550,
      "quota": 8551,
      "appointed": 8552,
      "values": 8553,
      "Techn": 8554,
      "hiding": 8555,
      "kalsu": 8556,
      "wsnt": 8557,
      "windows": 8558,
      "sacrifice": 8559,
      "triangle": 8560,
      "triangles": 8561,
      "responding": 8562,
      "Specially": 8563,
      "kitchen": 8564,
      "oxy": 8565,
      "memebr": 8566,
      "irritated": 8567,
      "loudly": 8568,
      "Double": 8569,
      "Qualifications": 8570,
      "homes": 8571,
      "tmre": 8572,
      "repeated": 8573,
      "advised": 8574,
      "Freshers": 8575,
      "Angry": 8576,
      "jaasti": 8577,
      "junior": 8578,
      "woken": 8579,
      "integr": 8580,
      "rupees": 8581,
      "exposed": 8582,
      "prepratory": 8583,
      "Product": 8584,
      "Questions": 8585,
      "Rakshith": 8586,
      "kammi": 8587,
      "establish": 8588,
      "technology": 8589,
      "Crying": 8590,
      "gurl": 8591,
      "sometime": 8592,
      "hibition": 8593,
      "Scholarship": 8594,
      "PLETV": 8595,
      "😭🥹😭🥹": 8596,
      "leakage": 8597,
      "ashamed": 8598,
      "assume": 8599,
      "academic": 8600,
      "weapon": 8601,
      "sullied": 8602,
      "subtitles": 8603,
      "accurate": 8604,
      "surrounded": 8605,
      "Copy": 8606,
      "Gonna": 8607,
      "Morning": 8608,
      "Mobile": 8609,
      "Tokyo": 8610,
      "Women": 8611,
      "_appId": 8612,
      "utensils": 8613,
      "coordinate": 8614,
      "focused": 8615,
      "transistor": 8616,
      "Elec": 8617,
      "Lawyer": 8618,
      "Mumbai": 8619,
      "_refId": 8620,
      "cmpid": 8621,
      "ಗ್ಗೆ": 8622,
      "thief": 8623,
      "illegal": 8624,
      "nagraj": 8625,
      "performance": 8626,
      "manipulate": 8627,
      "umalige": 8628,
      "Communication": 8629,
      "denominator": 8630,
      "\"?": 8631,
      "''": 8632,
      "',": 8633,
      "'||": 8634,
      "*\"": 8635,
      "08": 8636,
      "0r": 8637,
      "1d": 8638,
      "1gb": 8639,
      "1yr": 8640,
      "2M": 8641,
      "2a": 8642,
      "2g": 8643,
      "2l": 8644,
      "212": 8645,
      "3mins": 8646,
      "3hrs": 8647,
      "3lsns": 8648,
      "44": 8649,
      "4mins": 8650,
      "480": 8651,
      "5F": 8652,
      "5d": 8653,
      "5x": 8654,
      "5rs": 8655,
      "597": 8656,
      "650": 8657,
      "636": 8658,
      "7k": 8659,
      "83": 8660,
      "886": 8661,
      "928": 8662,
      "<=": 8663,
      "?!!!": 8664,
      "AV": 8665,
      "Aw": 8666,
      "ASS": 8667,
      "ASA": 8668,
      "Awwww": 8669,
      "BH": 8670,
      "Ba": 8671,
      "Bd": 8672,
      "Bs": 8673,
      "Bin": 8674,
      "Bar": 8675,
      "Bod": 8676,
      "BAD": 8677,
      "British": 8678,
      "Bachel": 8679,
      "C5": 8680,
      "CT": 8681,
      "Clear": 8682,
      "D5": 8683,
      "DM": 8684,
      "Dw": 8685,
      "Dy": 8686,
      "Dad": 8687,
      "Dream": 8688,
      "DBMS": 8689,
      "Drop": 8690,
      "End": 8691,
      "Ece": 8692,
      "E10": 8693,
      "Einstein": 8694,
      "Face": 8695,
      "Fibre": 8696,
      "FUX": 8697,
      "GB": 8698,
      "GI": 8699,
      "GU": 8700,
      "Gl": 8701,
      "Gop": 8702,
      "Gmm": 8703,
      "Game": 8704,
      "Gener": 8705,
      "Ghap": 8706,
      "GSI": 8707,
      "HV": 8708,
      "HER": 8709,
      "HPS": 8710,
      "Idek": 8711,
      "Js": 8712,
      "Java": 8713,
      "Kid": 8714,
      "Lan": 8715,
      "LOD": 8716,
      "Lord": 8717,
      "M3": 8718,
      "MB": 8719,
      "MF": 8720,
      "MK": 8721,
      "Mot": 8722,
      "Mag": 8723,
      "Main": 8724,
      "Mike": 8725,
      "Mah": 8726,
      "NB": 8727,
      "Nk": 8728,
      "Nn": 8729,
      "Ns": 8730,
      "Ned": 8731,
      "Nis": 8732,
      "Nike": 8733,
      "NEVER": 8734,
      "OL": 8735,
      "OPPPP": 8736,
      "P3": 8737,
      "P4": 8738,
      "P5": 8739,
      "PH": 8740,
      "Pc": 8741,
      "Py": 8742,
      "Pill": 8743,
      "Prom": 8744,
      "Pak": 8745,
      "Pda": 8746,
      "Pavan": 8747,
      "R4": 8748,
      "RD": 8749,
      "RU": 8750,
      "Rh": 8751,
      "Rr": 8752,
      "Rom": 8753,
      "Ruk": 8754,
      "RPS": 8755,
      "SG": 8756,
      "Sp": 8757,
      "Sex": 8758,
      "Sher": 8759,
      "Suc": 8760,
      "Sep": 8761,
      "Sig": 8762,
      "Sinch": 8763,
      "T0": 8764,
      "Tᕼ": 8765,
      "UD": 8766,
      "Ult": 8767,
      "Vh": 8768,
      "Vk": 8769,
      "Vid": 8770,
      "Vir": 8771,
      "Vol": 8772,
      "Varshini": 8773,
      "Vidya": 8774,
      "Wy": 8775,
      "War": 8776,
      "Wee": 8777,
      "Winter": 8778,
      "Wifi": 8779,
      "Wanted": 8780,
      "XA": 8781,
      "ZZ": 8782,
      "Zg": 8783,
      "Zh": 8784,
      "Zz09": 8785,
      "]=='": 8786,
      "_type": 8787,
      "_PIN": 8788,
      "aud": 8789,
      "apollo": 8790,
      "bW": 8791,
      "bage": 8792,
      "bann": 8793,
      "cn": 8794,
      "cw": 8795,
      "cream": 8796,
      "candid": 8797,
      "db": 8798,
      "dm": 8799,
      "dom": 8800,
      "danya": 8801,
      "dict": 8802,
      "dasara": 8803,
      "ey": 8804,
      "e10": 8805,
      "flying": 8806,
      "fabric": 8807,
      "gv": 8808,
      "gun": 8809,
      "gently": 8810,
      "ghapa": 8811,
      "h̶": 8812,
      "hon": 8813,
      "hop": 8814,
      "hide": 8815,
      "hired": 8816,
      "hentai": 8817,
      "iq": 8818,
      "ient": 8819,
      "ius": 8820,
      "iPhone": 8821,
      "jans": 8822,
      "kr": 8823,
      "kt": 8824,
      "kab": 8825,
      "liness": 8826,
      "lens": 8827,
      "mass": 8828,
      "mask": 8829,
      "mile": 8830,
      "nv": 8831,
      "national": 8832,
      "pad": 8833,
      "puc": 8834,
      "pra": 8835,
      "plet": 8836,
      "pace": 8837,
      "poned": 8838,
      "qs": 8839,
      "rac": 8840,
      "rise": 8841,
      "rical": 8842,
      "rcb": 8843,
      "sre": 8844,
      "sper": 8845,
      "sins": 8846,
      "tb": 8847,
      "tj": 8848,
      "tid": 8849,
      "tmr": 8850,
      "tini": 8851,
      "tum": 8852,
      "ule": 8853,
      "usa": 8854,
      "udi": 8855,
      "uvi": 8856,
      "vit": 8857,
      "vor": 8858,
      "vce": 8859,
      "vage": 8860,
      "vard": 8861,
      "vtu": 8862,
      "viva": 8863,
      "wn": 8864,
      "wow": 8865,
      "wsit": 8866,
      "wah": 8867,
      "yed": 8868,
      "zoo": 8869,
      "øp": 8870,
      "ʀᴏ": 8871,
      "̶h̶": 8872,
      "ΓH": 8873,
      "ಗತಿ": 8874,
      "ತಾ": 8875,
      "ಪೋ": 8876,
      "ಪರೀ": 8877,
      "ಬೆ": 8878,
      "ಳೆ": 8879,
      "ಾರ": 8880,
      "️I": 8881,
      "𝕿𝖍": 8882,
      "🅸🅽": 8883,
      "👀👀": 8884,
      "👊💦": 8885,
      "😁*": 8886,
      "😂.": 8887,
      "😍❤": 8888,
      "🥲😢": 8889,
      "inic": 8890,
      "inna": 8891,
      "infinite": 8892,
      "inshort": 8893,
      "invisible": 8894,
      "rous": 8895,
      "rodu": 8896,
      "roaming": 8897,
      "edic": 8898,
      "anci": 8899,
      "lle": 8900,
      "lled": 8901,
      "eness": 8902,
      "ona": 8903,
      "ony": 8904,
      "onions": 8905,
      "ativity": 8906,
      "reme": 8907,
      "reven": 8908,
      "reput": 8909,
      "hak": 8910,
      "haar": 8911,
      "habit": 8912,
      "sts": 8913,
      "stat": 8914,
      "stri": 8915,
      "stel": 8916,
      "orphan": 8917,
      "hee": 8918,
      "hey": 8919,
      "veer": 8920,
      "iality": 8921,
      "aswamy": 8922,
      "ides": 8923,
      "iddo": 8924,
      "ower": 8925,
      "owka": 8926,
      "arms": 8927,
      "aries": 8928,
      "Yav": 8929,
      "Yay": 8930,
      "chana": 8931,
      "willing": 8932,
      "ayta": 8933,
      "ees": 8934,
      "otp": 8935,
      "otive": 8936,
      "andha": 8937,
      "utt": 8938,
      "utter": 8939,
      "beated": 8940,
      "behalf": 8941,
      "americ": 8942,
      "alpha": 8943,
      "alaswamy": 8944,
      "admin": 8945,
      "adhar": 8946,
      "espec": 8947,
      "ppa": 8948,
      "ofap": 8949,
      "teaches": 8950,
      "sak": 8951,
      "selling": 8952,
      "hhhhh": 8953,
      "yaak": 8954,
      "Thing": 8955,
      "Thomas": 8956,
      "shits": 8957,
      "yel": 8958,
      "ura": 8959,
      "Nothinf": 8960,
      "entre": 8961,
      "entered": 8962,
      "aby": 8963,
      "ably": 8964,
      "abase": 8965,
      "abled": 8966,
      "lile": 8967,
      "liki": 8968,
      "irates": 8969,
      "irbeku": 8970,
      "tale": 8971,
      "tagon": 8972,
      "nake": 8973,
      "cannot": 8974,
      "ithvi": 8975,
      "weather": 8976,
      "ters": 8977,
      "ternal": 8978,
      "evit": 8979,
      "Anddd": 8980,
      "cling": 8981,
      "clapp": 8982,
      "clinic": 8983,
      "maaa": 8984,
      "depic": 8985,
      "deacti": 8986,
      "depending": 8987,
      "tip": 8988,
      "comedy": 8989,
      "user": 8990,
      "usha": 8991,
      "expl": 8992,
      "explan": 8993,
      "existed": 8994,
      "exhibition": 8995,
      "upto": 8996,
      "😂😂🤦": 8997,
      "nodi": 8998,
      "nocent": 8999,
      "gottila": 9000,
      "improve": 9001,
      "moaning": 9002,
      "aveen": 9003,
      "agra": 9004,
      "ucnh": 9005,
      "Soon": 9006,
      "afers": 9007,
      "likely": 9008,
      "justice": 9009,
      "pls": 9010,
      "plat": 9011,
      "pline": 9012,
      "Waittt": 9013,
      "logo": 9014,
      "outfits": 9015,
      "oku": 9016,
      "Chit": 9017,
      "unk": 9018,
      "102": 9019,
      "103": 9020,
      "109": 9021,
      "10rs": 9022,
      "Inside": 9023,
      "Innocent": 9024,
      "const": 9025,
      "consc": 9026,
      "cos": 9027,
      "cock": 9028,
      "profit": 9029,
      "lage": 9030,
      "pole": 9031,
      "feed": 9032,
      "articles": 9033,
      "boss": 9034,
      "picked": 9035,
      "manu": 9036,
      "rape": 9037,
      "raped": 9038,
      "rapid": 9039,
      "fucks": 9040,
      "minor": 9041,
      "quake": 9042,
      "http": 9043,
      "classmate": 9044,
      "byte": 9045,
      "iew": 9046,
      "marys": 9047,
      "todays": 9048,
      "workshop": 9049,
      "207": 9050,
      "watchman": 9051,
      "...!": 9052,
      "parik": 9053,
      "parallel": 9054,
      "wouldnt": 9055,
      "faith": 9056,
      "scrolling": 9057,
      "ramayan": 9058,
      "Abhishek": 9059,
      "joking": 9060,
      "Record": 9061,
      "Seee": 9062,
      "Forward": 9063,
      "apparently": 9064,
      "prene": 9065,
      "veryyy": 9066,
      "spid": 9067,
      "intent": 9068,
      "youn": 9069,
      "Leg": 9070,
      "Samee": 9071,
      "Canr": 9072,
      "cheee": 9073,
      "hogo": 9074,
      "hogi": 9075,
      "mond": 9076,
      "buff": 9077,
      "Ghan": 9078,
      "Order": 9079,
      "tym": 9080,
      "trr": 9081,
      "helmet": 9082,
      "personality": 9083,
      "nyc": 9084,
      "grind": 9085,
      "itement": 9086,
      "bled": 9087,
      "bling": 9088,
      "noobdi": 9089,
      "attribute": 9090,
      "attacked": 9091,
      "deleting": 9092,
      "udy": 9093,
      "teached": 9094,
      "standard": 9095,
      "hij": 9096,
      "Exp": 9097,
      "ysis": 9098,
      "lowdi": 9099,
      "sites": 9100,
      "fract": 9101,
      "bai": 9102,
      "bael": 9103,
      "els": 9104,
      "Shut": 9105,
      "123": 9106,
      "Stick": 9107,
      "bittaku": 9108,
      "bitches": 9109,
      "fucker": 9110,
      "18k": 9111,
      "fried": 9112,
      "🔥🔥🔥🔥🔥🔥🔥": 9113,
      "show_": 9114,
      "Tqqq": 9115,
      "......\"": 9116,
      "......?": 9117,
      "forehead": 9118,
      "Beli": 9119,
      "controlling": 9120,
      "drain": 9121,
      "smart": 9122,
      "ferent": 9123,
      "ivaga": 9124,
      "sector": 9125,
      "completing": 9126,
      "yessss": 9127,
      "sisya": 9128,
      "shaking": 9129,
      "shaved": 9130,
      "scls": 9131,
      "uuuu": 9132,
      "frndship": 9133,
      "disg": 9134,
      "discovered": 9135,
      "disappointed": 9136,
      "gather": 9137,
      "ibha": 9138,
      "Everyday": 9139,
      "EED": 9140,
      "asht": 9141,
      "ashte": 9142,
      "ashok": 9143,
      "ashram": 9144,
      "hug": 9145,
      "50k": 9146,
      "syste": 9147,
      "resting": 9148,
      "supports": 9149,
      "june": 9150,
      "solutions": 9151,
      "SSS": 9152,
      "ected": 9153,
      "charges": 9154,
      "ignored": 9155,
      "barta": 9156,
      "caused": 9157,
      "msged": 9158,
      "😢😢😢😢😢": 9159,
      "grams": 9160,
      "pupp": 9161,
      "breast": 9162,
      "shitt": 9163,
      "posts": 9164,
      "kumar": 9165,
      "weekly": 9166,
      "weekdays": 9167,
      "cipline": 9168,
      "cussing": 9169,
      "pressur": 9170,
      "aaglila": 9171,
      "aagtila": 9172,
      "Comfort": 9173,
      "Byee": 9174,
      "Wcc": 9175,
      "chatgpt": 9176,
      "maadsk": 9177,
      "maadko": 9178,
      "wears": 9179,
      "crack": 9180,
      "fasting": 9181,
      "ulture": 9182,
      "passbook": 9183,
      "satya": 9184,
      "addict": 9185,
      "commit": 9186,
      "commented": 9187,
      "💦💦💦💦💦💦": 9188,
      "creep": 9189,
      "creating": 9190,
      "pdfs": 9191,
      "listened": 9192,
      "45mins": 9193,
      "Missing": 9194,
      "flame": 9195,
      "ometric": 9196,
      "staying": 9197,
      "26th": 9198,
      "Hug": 9199,
      "Huhhhh": 9200,
      "valid": 9201,
      "opens": 9202,
      "primary": 9203,
      "traveling": 9204,
      "25k": 9205,
      "Anna": 9206,
      "Place": 9207,
      "sensitive": 9208,
      "Concer": 9209,
      "Construction": 9210,
      "cursing": 9211,
      "gays": 9212,
      "kills": 9213,
      "basics": 9214,
      "viol": 9215,
      "Dead": 9216,
      "Inda": 9217,
      "Index": 9218,
      "SAY": 9219,
      "wars": 9220,
      "warned": 9221,
      "prints": 9222,
      "reduce": 9223,
      "speakers": 9224,
      "PPL": 9225,
      "60k": 9226,
      "Mock": 9227,
      "Saturn": 9228,
      "brains": 9229,
      "ludo": 9230,
      "THEY": 9231,
      "Johnny": 9232,
      "ballz": 9233,
      "ducking": 9234,
      "Noooooo": 9235,
      "Principal": 9236,
      "Pradhan": 9237,
      "magic": 9238,
      "engine_type": 9239,
      "Omgggg": 9240,
      "locking": 9241,
      "Drink": 9242,
      "darsh": 9243,
      "HHHHH": 9244,
      "WHEN": 9245,
      "WHERE": 9246,
      "YAAA": 9247,
      "cuit": 9248,
      "freshers": 9249,
      "bhai": 9250,
      "sides": 9251,
      "pills": 9252,
      "tougher": 9253,
      "ountain": 9254,
      "Bitch": 9255,
      "____": 9256,
      "milf": 9257,
      "🤩🤩🤩": 9258,
      "MCQ": 9259,
      "Phy": 9260,
      "Phys": 9261,
      "factors": 9262,
      "😩😩😩😩": 9263,
      "TOo": 9264,
      "shock": 9265,
      "marrying": 9266,
      "namratha": 9267,
      "infix": 9268,
      "SHOF": 9269,
      "SHOULD": 9270,
      "TVS": 9271,
      "genius": 9272,
      "samasa": 9273,
      "bird": 9274,
      "denied": 9275,
      "resist": 9276,
      "resources": 9277,
      "respond": 9278,
      "Hostel": 9279,
      "washroom": 9280,
      "Manjunatha": 9281,
      "Exams": 9282,
      "considering": 9283,
      "garbage": 9284,
      "sharada": 9285,
      "ASK": 9286,
      "nnnn": 9287,
      "technical": 9288,
      "pcmc": 9289,
      "roadmap": 9290,
      "schedule": 9291,
      "continuously": 9292,
      "Result": 9293,
      "Resources": 9294,
      "TED": 9295,
      "equations": 9296,
      "tempor": 9297,
      "incidence": 9298,
      "anjangud": 9299,
      "Output": 9300,
      "fycking": 9301,
      "🌊🌊🌊": 9302,
      "investment": 9303,
      "alyan": 9304,
      "positive": 9305,
      "ikitha": 9306,
      "Ayeee": 9307,
      "OMGGGG": 9308,
      "aadmele": 9309,
      "tvs": 9310,
      "frustr": 9311,
      "relaxed": 9312,
      "pollman": 9313,
      "perfectly": 9314,
      "🥹🥹🥹": 9315,
      "necessarily": 9316,
      "mmmmmmmm": 9317,
      "😭😭😭😭😭😭😭😭😭": 9318,
      "kidnapper": 9319,
      "uploaded": 9320,
      "🤔🤔🤔🤔🤔🤔🤔🤔": 9321,
      "Parking": 9322,
      "counting": 9323,
      "councelling": 9324,
      "kotane": 9325,
      "entertainment": 9326,
      "Plzzz": 9327,
      "Btww": 9328,
      "Grand": 9329,
      "Looks": 9330,
      "Prepar": 9331,
      "products": 9332,
      "👏👏👏👏": 9333,
      "stylish": 9334,
      "machines": 9335,
      "photos": 9336,
      "awesome": 9337,
      "games": 9338,
      "Continu": 9339,
      "Girish": 9340,
      "Zainab": 9341,
      "promised": 9342,
      "festival": 9343,
      "wrt": 9344,
      "depended": 9345,
      "Chala": 9346,
      "casual": 9347,
      "cigarette": 9348,
      "scanf": 9349,
      "scanned": 9350,
      "😃😃😃": 9351,
      "memorise": 9352,
      "eetara": 9353,
      "forwarded": 9354,
      "confidently": 9355,
      "COME": 9356,
      "stitute": 9357,
      "selection": 9358,
      "clarity": 9359,
      "managed": 9360,
      "imagination": 9361,
      "pizza": 9362,
      "referencing": 9363,
      "conducted": 9364,
      "Collect": 9365,
      "Early": 9366,
      "ethics": 9367,
      "Browwwwww": 9368,
      "influence": 9369,
      "staffs": 9370,
      "Chemistry": 9371,
      "Papa": 9372,
      "Trig": 9373,
      "kashta": 9374,
      "maadila": 9375,
      "Relative": 9376,
      "chayram": 9377,
      "vibes": 9378,
      "terrorists": 9379,
      "suitable": 9380,
      "quote": 9381,
      "spelling": 9382,
      "maadtini": 9383,
      "Daily": 9384,
      "treated": 9385,
      "measurement": 9386,
      "earthquake": 9387,
      "avnge": 9388,
      "💋💋💋💋💋💋💋💋💋💋💋💋💋💋💋💋💋💋💋💋💋💋💋💋💋💋💋💋💋💋💋💋💋💋💋💋💋💋💋💋💋💋💋💋💋💋💋💋💋💋💋💋💋💋💋💋💋💋💋💋💋💋💋💋💋💋💋💋💋💋💋💋💋💋💋💋💋💋💋💋💋💋💋💋💋💋💋💋💋💋💋💋💋💋💋💋💋💋💋💋💋💋💋💋💋💋💋💋💋💋💋💋💋💋💋💋💋💋💋💋💋💋💋💋💋💋💋💋": 9389,
      "Basically": 9390,
      "Primary": 9391,
      "habhar": 9392,
      "Children": 9393,
      "​​​​​​​​​​​​​​​​​​​​​​​​​​​​​​​​​​​​​​​​​​​​​​​​​​​​​​​​​​​​​​​​​​​​​​​​​​​​​​​​​​​​​​​​​​​​​​​​​​​​​​​​​​​​​​​​​​​​​​​​​​​​​​​​​​​​​​​​​​​​​​​​​​​​​​​​​​​​​​​​​​​​​​​​​​​​​​​​​​​​​​​​​​​​​​​​​​​​​​​​​​​​​​​​​​​​​​​​​​​​​​​​​​​​​​​​​​​​​​​​​​​​​​​​​​​​​​​​​​​​​​​​​​​​​​​​​​​​​​​​​​​​​​​​​​​​​​​​​​​​​​​​​​​​​​​​​​​​​​​​​​​​​​​​​​​​​​​​​​​​​​​​​​​​​​​​​​​​​​​​​​​​​​​​​​​​​​​​​​​​​​​​​​​​​​​​​​​​​​​​​​​​​​​​​​​​​​​​​​​​​​​​​​​​​​​​​​​​​​​​​​​​​​​​​​​​​​​​​​​​​​​​​​​​​​​​​​​​​​​​​​​​​​​​​​​​​​​​​​​​​​​​​​​​​​​​​​​​​​​​​​​​​​​​​​​​​​​​​​​​​​​​​​​​​​​​​​​​​​​​​​​​​​​​​​​​​​​​​​​​​​​​​​​​​​​​​​​​​​​​​​​​​​​​​​​​​​​​​​​​​​​​​​​​​​​​​​​​​​​​​​​​​​​​​​​​​​​​​​​​​​​​​​​​​​​​​​​​​​​​​​​​​​​​​​​​​​​​​​​​​​​​​​​​​​​​​​​​​​​​​​​​​​​​​​​​​​​​​​​​​​​​​​​​​​​​​​​​​​​​​​​​​​​​​​​​​​​​​​​​​​​​​​​​​​​​​​​​​​​​​​​​​​​​​​​​​​​​​​​​​​​​​​​​​​​​​​​​​​​​​​​​​​​​​​​​​​​​​​​​​​​​​​​​​​​​​​​​​​​​​​​​​​​​​​​​​​​​​​​​​​​​​​​​​​​​​​​​​​​​​​​​​​​​​​​​​​​​​​​​​​​​​​​​​​​​​​​​​​​​​​​​​​​​​​​​​​​​​​​​​​​​​​​​​​​​​​​​​​​​​​​​​​​​​​​​​​​​​​​​​​​​": 9394,
      "Different": 9395,
      "cutie": 9396,
      "brown": 9397,
      "Marketing": 9398,
      "masturbation": 9399,
      "Attendance": 9400,
      "BSDK": 9401,
      "Delhi": 9402,
      "HIM": 9403,
      "NFT": 9404,
      "Tanki": 9405,
      "jagla": 9406,
      "punish": 9407,
      "controller": 9408,
      "Frnds": 9409,
      "Holding": 9410,
      "palace": 9411,
      "😈😁😈😁": 9412,
      "classs": 9413,
      "combined": 9414,
      "plastics": 9415,
      "blowing": 9416,
      "supporting": 9417,
      "challenges": 9418,
      "Hpnd": 9419,
      "Lamith": 9420,
      "🆃🅷🅴": 9421,
      "repaired": 9422,
      "stalking": 9423,
      "Welcome": 9424,
      "priorit": 9425,
      "distractions": 9426,
      "Spoiled": 9427,
      "nanjumalige": 9428,
      "vinay": 9429,
      "ᴛʜᴇ": 9430,
      "channel": 9431,
      "shishuvi": 9432,
      "Choose": 9433,
      "assistance": 9434,
      "proffesor": 9435,
      "opportunity": 9436,
      "column": 9437,
      "HAPPY": 9438,
      "landsdown": 9439,
      "MADAR": 9440,
      "numerator": 9441,
      "Breakfast": 9442,
      "Entry": 9443,
      "Foreign": 9444,
      "Wasssup": 9445,
      "vyagra": 9446,
      "chrome": 9447,
      "Excited": 9448,
      "Protection": 9449,
      "mistakenly": 9450,
      "Electricity": 9451,
      "Aunty": 9452,
      "Frustrated": 9453,
      "JPMC": 9454,
      "Podcast": 9455,
      "waiy": 9456,
      "ಗಂಟೆಗೆ": 9457,
      "ತರಗತಿ": 9458,
      "ಶಾಲ": 9459,
      "resistor": 9460,
      "acknowledgement": 9461,
      "olkata": 9462,
      "Experienced": 9463,
      "Lockdown": 9464,
      "Travelling": 9465,
      "massaging": 9466,
      "ಪ್ರಶ್ನೆ": 9467,
      "Technical": 9468,
      "ASAP": 9469,
      "Body": 9470,
      "Bachelor": 9471,
      "Gopalaswamy": 9472,
      "Motiv": 9473,
      "Nischayram": 9474,
      "Pillow": 9475,
      "Promise": 9476,
      "Sinchana": 9477,
      "Ultra": 9478,
      "jansamarth": 9479,
      "pletv": 9480,
      "ಪರೀಕ್ಷ": 9481,
      "ಬೆಳ": 9482,
      "𝕿𝖍𝖊": 9483,
      "ancient": 9484,
      "explanation": 9485,
      "agrahara": 9486,
      "rapido": 9487,
      "baelish": 9488,
      "systems": 9489,
      "shishuvihara": 9490,
      "Gopalaswamyshishuvihara": 9491,
      "%?": 9492,
      ")*": 9493,
      ")+": 9494,
      ".(": 9495,
      "1r": 9496,
      "110": 9497,
      "115": 9498,
      "170": 9499,
      "2times": 9500,
      "2pm": 9501,
      "2lsns": 9502,
      "3h": 9503,
      "31st": 9504,
      "3eps": 9505,
      "4b": 9506,
      "4x": 9507,
      "450": 9508,
      "59": 9509,
      "5S": 9510,
      "5U": 9511,
      "5b": 9512,
      "5g": 9513,
      "5gb": 9514,
      "66": 9515,
      "6i": 9516,
      "6months": 9517,
      "625": 9518,
      "667": 9519,
      "84": 9520,
      "8am": 9521,
      ":*": 9522,
      "::": 9523,
      "?😂": 9524,
      "@@": 9525,
      "Ama": 9526,
      "Ane": 9527,
      "Ayy": 9528,
      "Appl": 9529,
      "BY": 9530,
      "Bv": 9531,
      "Bak": 9532,
      "Bud": 9533,
      "Bidu": 9534,
      "Bhaskar": 9535,
      "C7": 9536,
      "CI": 9537,
      "CK": 9538,
      "Ck": 9539,
      "Cer": 9540,
      "Cuti": 9541,
      "Cong": 9542,
      "Cbs": 9543,
      "Caste": 9544,
      "CIE": 9545,
      "Catering": 9546,
      "DB": 9547,
      "DP": 9548,
      "DR": 9549,
      "DZ": 9550,
      "Du": 9551,
      "Dro": 9552,
      "Dan": 9553,
      "Dia": 9554,
      "Dani": 9555,
      "Darshan": 9556,
      "E8": 9557,
      "FY": 9558,
      "Fb": 9559,
      "Food": 9560,
      "Free": 9561,
      "Fake": 9562,
      "FIN": 9563,
      "Font": 9564,
      "GA": 9565,
      "GF": 9566,
      "Gee": 9567,
      "Gra": 9568,
      "Gram": 9569,
      "Goku": 9570,
      "Hw": 9571,
      "Hy": 9572,
      "Hor": 9573,
      "Hol": 9574,
      "IP": 9575,
      "Ir": 9576,
      "Iv": 9577,
      "Iz": 9578,
      "IИ": 9579,
      "Ice": 9580,
      "ILL": 9581,
      "JK": 9582,
      "JR": 9583,
      "Jz": 9584,
      "Jose": 9585,
      "Juni": 9586,
      "Jio": 9587,
      "KP": 9588,
      "Kolkata": 9589,
      "LI": 9590,
      "LT": 9591,
      "Loo": 9592,
      "Lot": 9593,
      "Lav": 9594,
      "LOW": 9595,
      "MQ": 9596,
      "Mi": 9597,
      "Ml": 9598,
      "Mer": 9599,
      "Mac": 9600,
      "Might": 9601,
      "MIT": 9602,
      "MWF": 9603,
      "MAR": 9604,
      "Mins": 9605,
      "NX": 9606,
      "Nq": 9607,
      "Nw": 9608,
      "Naa": 9609,
      "OX": 9610,
      "Oooo": 9611,
      "Oii": 9612,
      "P1": 9613,
      "P2": 9614,
      "Pi": 9615,
      "Pot": 9616,
      "Pet": 9617,
      "Prep": 9618,
      "Pump": 9619,
      "Power": 9620,
      "Qx": 9621,
      "RN": 9622,
      "Rz": 9623,
      "Ran": 9624,
      "Random": 9625,
      "Ravi": 9626,
      "S8": 9627,
      "Si": 9628,
      "Sm": 9629,
      "Sq": 9630,
      "Set": 9631,
      "Sag": 9632,
      "Shar": 9633,
      "Sak": 9634,
      "Ssp": 9635,
      "Song": 9636,
      "Story": 9637,
      "TX": 9638,
      "Tt": 9639,
      "Tar": 9640,
      "Tab": 9641,
      "Tex": 9642,
      "Tutiy": 9643,
      "Tnrw": 9644,
      "Tears": 9645,
      "Tulsi": 9646,
      "U1": 9647,
      "U2": 9648,
      "UH": 9649,
      "Us": 9650,
      "Uber": 9651,
      "UTE": 9652,
      "VF": 9653,
      "Vp": 9654,
      "Vru": 9655,
      "Vomit": 9656,
      "WR": 9657,
      "WW": 9658,
      "Wn": 9659,
      "Wild": 9660,
      "Wdz09": 9661,
      "WANT": 9662,
      "Wlcm": 9663,
      "Xz": 9664,
      "YW": 9665,
      "YZ": 9666,
      "Yn": 9667,
      "Yeee": 9668,
      "Youtu": 9669,
      "Zm": 9670,
      "Zv": 9671,
      "Zx": 9672,
      "Zz": 9673,
      "]);": 9674,
      "ao": 9675,
      "aked": 9676,
      "aero": 9677,
      "athish": 9678,
      "b0": 9679,
      "bing": 9680,
      "bte": 9681,
      "bate": 9682,
      "bhi": 9683,
      "b00": 9684,
      "bdy": 9685,
      "bility": 9686,
      "bava": 9687,
      "cot": 9688,
      "cone": 9689,
      "cuc": 9690,
      "cked": 9691,
      "cafe": 9692,
      "dx": 9693,
      "dha": 9694,
      "dot": 9695,
      "dsa": 9696,
      "dir": 9697,
      "dry": 9698,
      "ders": 9699,
      "dig": 9700,
      "dra": 9701,
      "dings": 9702,
      "dwar": 9703,
      "drama": 9704,
      "e1": 9705,
      "eH": 9706,
      "ela": 9707,
      "egg": 9708,
      "ection": 9709,
      "fd": 9710,
      "frud": 9711,
      "fave": 9712,
      "five": 9713,
      "fuk": 9714,
      "foot": 9715,
      "flav": 9716,
      "git": 9717,
      "gand": 9718,
      "gery": 9719,
      "hS": 9720,
      "hro": 9721,
      "hun": 9722,
[...]
